{
  "version": "1.0",
  "truncation": null,
  "padding": null,
  "added_tokens": [
    {
      "id": 0,
      "content": "<pad>",
      "single_word": false,
      "lstrip": false,
      "rstrip": false,
      "normalized": false,
      "special": true
    },
    {
      "id": 1,
      "content": "<s>",
      "single_word": false,
      "lstrip": false,
      "rstrip": false,
      "normalized": false,
      "special": true
    },
    {
      "id": 2,
      "content": "</s>",
      "single_word": false,
      "lstrip": false,
      "rstrip": false,
      "normalized": false,
      "special": true
    },
    {
      "id": 3,
      "content": "<unk>",
      "single_word": false,
      "lstrip": false,
      "rstrip": false,
      "normalized": true,
      "special": true
    },
    {
      "id": 4,
      "content": "<mask>",
      "single_word": false,
      "lstrip": false,
      "rstrip": false,
      "normalized": false,
      "special": true
    },
    {
      "id": 32000,
      "content": "<extra_id_99>",
      "single_word": false,
      "lstrip": false,
      "rstrip": false,
      "normalized": false,
      "special": true
    },
    {
      "id": 32001,
      "content": "<extra_id_98>",
      "single_word": false,
      "lstrip": false,
      "rstrip": false,
      "normalized": false,
      "special": true
    },
    {
      "id": 32002,
      "content": "<extra_id_97>",
      "single_word": false,
      "lstrip": false,
      "rstrip": false,
      "normalized": false,
      "special": true
    },
    {
      "id": 32003,
      "content": "<extra_id_96>",
      "single_word": false,
      "lstrip": false,
      "rstrip": false,
      "normalized": false,
      "special": true
    },
    {
      "id": 32004,
      "content": "<extra_id_95>",
      "single_word": false,
      "lstrip": false,
      "rstrip": false,
      "normalized": false,
      "special": true
    },
    {
      "id": 32005,
      "content": "<extra_id_94>",
      "single_word": false,
      "lstrip": false,
      "rstrip": false,
      "normalized": false,
      "special": true
    },
    {
      "id": 32006,
      "content": "<extra_id_93>",
      "single_word": false,
      "lstrip": false,
      "rstrip": false,
      "normalized": false,
      "special": true
    },
    {
      "id": 32007,
      "content": "<extra_id_92>",
      "single_word": false,
      "lstrip": false,
      "rstrip": false,
      "normalized": false,
      "special": true
    },
    {
      "id": 32008,
      "content": "<extra_id_91>",
      "single_word": false,
      "lstrip": false,
      "rstrip": false,
      "normalized": false,
      "special": true
    },
    {
      "id": 32009,
      "content": "<extra_id_90>",
      "single_word": false,
      "lstrip": false,
      "rstrip": false,
      "normalized": false,
      "special": true
    },
    {
      "id": 32010,
      "content": "<extra_id_89>",
      "single_word": false,
      "lstrip": false,
      "rstrip": false,
      "normalized": false,
      "special": true
    },
    {
      "id": 32011,
      "content": "<extra_id_88>",
      "single_word": false,
      "lstrip": false,
      "rstrip": false,
      "normalized": false,
      "special": true
    },
    {
      "id": 32012,
      "content": "<extra_id_87>",
      "single_word": false,
      "lstrip": false,
      "rstrip": false,
      "normalized": false,
      "special": true
    },
    {
      "id": 32013,
      "content": "<extra_id_86>",
      "single_word": false,
      "lstrip": false,
      "rstrip": false,
      "normalized": false,
      "special": true
    },
    {
      "id": 32014,
      "content": "<extra_id_85>",
      "single_word": false,
      "lstrip": false,
      "rstrip": false,
      "normalized": false,
      "special": true
    },
    {
      "id": 32015,
      "content": "<extra_id_84>",
      "single_word": false,
      "lstrip": false,
      "rstrip": false,
      "normalized": false,
      "special": true
    },
    {
      "id": 32016,
      "content": "<extra_id_83>",
      "single_word": false,
      "lstrip": false,
      "rstrip": false,
      "normalized": false,
      "special": true
    },
    {
      "id": 32017,
      "content": "<extra_id_82>",
      "single_word": false,
      "lstrip": false,
      "rstrip": false,
      "normalized": false,
      "special": true
    },
    {
      "id": 32018,
      "content": "<extra_id_81>",
      "single_word": false,
      "lstrip": false,
      "rstrip": false,
      "normalized": false,
      "special": true
    },
    {
      "id": 32019,
      "content": "<extra_id_80>",
      "single_word": false,
      "lstrip": false,
      "rstrip": false,
      "normalized": false,
      "special": true
    },
    {
      "id": 32020,
      "content": "<extra_id_79>",
      "single_word": false,
      "lstrip": false,
      "rstrip": false,
      "normalized": false,
      "special": true
    },
    {
      "id": 32021,
      "content": "<extra_id_78>",
      "single_word": false,
      "lstrip": false,
      "rstrip": false,
      "normalized": false,
      "special": true
    },
    {
      "id": 32022,
      "content": "<extra_id_77>",
      "single_word": false,
      "lstrip": false,
      "rstrip": false,
      "normalized": false,
      "special": true
    },
    {
      "id": 32023,
      "content": "<extra_id_76>",
      "single_word": false,
      "lstrip": false,
      "rstrip": false,
      "normalized": false,
      "special": true
    },
    {
      "id": 32024,
      "content": "<extra_id_75>",
      "single_word": false,
      "lstrip": false,
      "rstrip": false,
      "normalized": false,
      "special": true
    },
    {
      "id": 32025,
      "content": "<extra_id_74>",
      "single_word": false,
      "lstrip": false,
      "rstrip": false,
      "normalized": false,
      "special": true
    },
    {
      "id": 32026,
      "content": "<extra_id_73>",
      "single_word": false,
      "lstrip": false,
      "rstrip": false,
      "normalized": false,
      "special": true
    },
    {
      "id": 32027,
      "content": "<extra_id_72>",
      "single_word": false,
      "lstrip": false,
      "rstrip": false,
      "normalized": false,
      "special": true
    },
    {
      "id": 32028,
      "content": "<extra_id_71>",
      "single_word": false,
      "lstrip": false,
      "rstrip": false,
      "normalized": false,
      "special": true
    },
    {
      "id": 32029,
      "content": "<extra_id_70>",
      "single_word": false,
      "lstrip": false,
      "rstrip": false,
      "normalized": false,
      "special": true
    },
    {
      "id": 32030,
      "content": "<extra_id_69>",
      "single_word": false,
      "lstrip": false,
      "rstrip": false,
      "normalized": false,
      "special": true
    },
    {
      "id": 32031,
      "content": "<extra_id_68>",
      "single_word": false,
      "lstrip": false,
      "rstrip": false,
      "normalized": false,
      "special": true
    },
    {
      "id": 32032,
      "content": "<extra_id_67>",
      "single_word": false,
      "lstrip": false,
      "rstrip": false,
      "normalized": false,
      "special": true
    },
    {
      "id": 32033,
      "content": "<extra_id_66>",
      "single_word": false,
      "lstrip": false,
      "rstrip": false,
      "normalized": false,
      "special": true
    },
    {
      "id": 32034,
      "content": "<extra_id_65>",
      "single_word": false,
      "lstrip": false,
      "rstrip": false,
      "normalized": false,
      "special": true
    },
    {
      "id": 32035,
      "content": "<extra_id_64>",
      "single_word": false,
      "lstrip": false,
      "rstrip": false,
      "normalized": false,
      "special": true
    },
    {
      "id": 32036,
      "content": "<extra_id_63>",
      "single_word": false,
      "lstrip": false,
      "rstrip": false,
      "normalized": false,
      "special": true
    },
    {
      "id": 32037,
      "content": "<extra_id_62>",
      "single_word": false,
      "lstrip": false,
      "rstrip": false,
      "normalized": false,
      "special": true
    },
    {
      "id": 32038,
      "content": "<extra_id_61>",
      "single_word": false,
      "lstrip": false,
      "rstrip": false,
      "normalized": false,
      "special": true
    },
    {
      "id": 32039,
      "content": "<extra_id_60>",
      "single_word": false,
      "lstrip": false,
      "rstrip": false,
      "normalized": false,
      "special": true
    },
    {
      "id": 32040,
      "content": "<extra_id_59>",
      "single_word": false,
      "lstrip": false,
      "rstrip": false,
      "normalized": false,
      "special": true
    },
    {
      "id": 32041,
      "content": "<extra_id_58>",
      "single_word": false,
      "lstrip": false,
      "rstrip": false,
      "normalized": false,
      "special": true
    },
    {
      "id": 32042,
      "content": "<extra_id_57>",
      "single_word": false,
      "lstrip": false,
      "rstrip": false,
      "normalized": false,
      "special": true
    },
    {
      "id": 32043,
      "content": "<extra_id_56>",
      "single_word": false,
      "lstrip": false,
      "rstrip": false,
      "normalized": false,
      "special": true
    },
    {
      "id": 32044,
      "content": "<extra_id_55>",
      "single_word": false,
      "lstrip": false,
      "rstrip": false,
      "normalized": false,
      "special": true
    },
    {
      "id": 32045,
      "content": "<extra_id_54>",
      "single_word": false,
      "lstrip": false,
      "rstrip": false,
      "normalized": false,
      "special": true
    },
    {
      "id": 32046,
      "content": "<extra_id_53>",
      "single_word": false,
      "lstrip": false,
      "rstrip": false,
      "normalized": false,
      "special": true
    },
    {
      "id": 32047,
      "content": "<extra_id_52>",
      "single_word": false,
      "lstrip": false,
      "rstrip": false,
      "normalized": false,
      "special": true
    },
    {
      "id": 32048,
      "content": "<extra_id_51>",
      "single_word": false,
      "lstrip": false,
      "rstrip": false,
      "normalized": false,
      "special": true
    },
    {
      "id": 32049,
      "content": "<extra_id_50>",
      "single_word": false,
      "lstrip": false,
      "rstrip": false,
      "normalized": false,
      "special": true
    },
    {
      "id": 32050,
      "content": "<extra_id_49>",
      "single_word": false,
      "lstrip": false,
      "rstrip": false,
      "normalized": false,
      "special": true
    },
    {
      "id": 32051,
      "content": "<extra_id_48>",
      "single_word": false,
      "lstrip": false,
      "rstrip": false,
      "normalized": false,
      "special": true
    },
    {
      "id": 32052,
      "content": "<extra_id_47>",
      "single_word": false,
      "lstrip": false,
      "rstrip": false,
      "normalized": false,
      "special": true
    },
    {
      "id": 32053,
      "content": "<extra_id_46>",
      "single_word": false,
      "lstrip": false,
      "rstrip": false,
      "normalized": false,
      "special": true
    },
    {
      "id": 32054,
      "content": "<extra_id_45>",
      "single_word": false,
      "lstrip": false,
      "rstrip": false,
      "normalized": false,
      "special": true
    },
    {
      "id": 32055,
      "content": "<extra_id_44>",
      "single_word": false,
      "lstrip": false,
      "rstrip": false,
      "normalized": false,
      "special": true
    },
    {
      "id": 32056,
      "content": "<extra_id_43>",
      "single_word": false,
      "lstrip": false,
      "rstrip": false,
      "normalized": false,
      "special": true
    },
    {
      "id": 32057,
      "content": "<extra_id_42>",
      "single_word": false,
      "lstrip": false,
      "rstrip": false,
      "normalized": false,
      "special": true
    },
    {
      "id": 32058,
      "content": "<extra_id_41>",
      "single_word": false,
      "lstrip": false,
      "rstrip": false,
      "normalized": false,
      "special": true
    },
    {
      "id": 32059,
      "content": "<extra_id_40>",
      "single_word": false,
      "lstrip": false,
      "rstrip": false,
      "normalized": false,
      "special": true
    },
    {
      "id": 32060,
      "content": "<extra_id_39>",
      "single_word": false,
      "lstrip": false,
      "rstrip": false,
      "normalized": false,
      "special": true
    },
    {
      "id": 32061,
      "content": "<extra_id_38>",
      "single_word": false,
      "lstrip": false,
      "rstrip": false,
      "normalized": false,
      "special": true
    },
    {
      "id": 32062,
      "content": "<extra_id_37>",
      "single_word": false,
      "lstrip": false,
      "rstrip": false,
      "normalized": false,
      "special": true
    },
    {
      "id": 32063,
      "content": "<extra_id_36>",
      "single_word": false,
      "lstrip": false,
      "rstrip": false,
      "normalized": false,
      "special": true
    },
    {
      "id": 32064,
      "content": "<extra_id_35>",
      "single_word": false,
      "lstrip": false,
      "rstrip": false,
      "normalized": false,
      "special": true
    },
    {
      "id": 32065,
      "content": "<extra_id_34>",
      "single_word": false,
      "lstrip": false,
      "rstrip": false,
      "normalized": false,
      "special": true
    },
    {
      "id": 32066,
      "content": "<extra_id_33>",
      "single_word": false,
      "lstrip": false,
      "rstrip": false,
      "normalized": false,
      "special": true
    },
    {
      "id": 32067,
      "content": "<extra_id_32>",
      "single_word": false,
      "lstrip": false,
      "rstrip": false,
      "normalized": false,
      "special": true
    },
    {
      "id": 32068,
      "content": "<extra_id_31>",
      "single_word": false,
      "lstrip": false,
      "rstrip": false,
      "normalized": false,
      "special": true
    },
    {
      "id": 32069,
      "content": "<extra_id_30>",
      "single_word": false,
      "lstrip": false,
      "rstrip": false,
      "normalized": false,
      "special": true
    },
    {
      "id": 32070,
      "content": "<extra_id_29>",
      "single_word": false,
      "lstrip": false,
      "rstrip": false,
      "normalized": false,
      "special": true
    },
    {
      "id": 32071,
      "content": "<extra_id_28>",
      "single_word": false,
      "lstrip": false,
      "rstrip": false,
      "normalized": false,
      "special": true
    },
    {
      "id": 32072,
      "content": "<extra_id_27>",
      "single_word": false,
      "lstrip": false,
      "rstrip": false,
      "normalized": false,
      "special": true
    },
    {
      "id": 32073,
      "content": "<extra_id_26>",
      "single_word": false,
      "lstrip": false,
      "rstrip": false,
      "normalized": false,
      "special": true
    },
    {
      "id": 32074,
      "content": "<extra_id_25>",
      "single_word": false,
      "lstrip": false,
      "rstrip": false,
      "normalized": false,
      "special": true
    },
    {
      "id": 32075,
      "content": "<extra_id_24>",
      "single_word": false,
      "lstrip": false,
      "rstrip": false,
      "normalized": false,
      "special": true
    },
    {
      "id": 32076,
      "content": "<extra_id_23>",
      "single_word": false,
      "lstrip": false,
      "rstrip": false,
      "normalized": false,
      "special": true
    },
    {
      "id": 32077,
      "content": "<extra_id_22>",
      "single_word": false,
      "lstrip": false,
      "rstrip": false,
      "normalized": false,
      "special": true
    },
    {
      "id": 32078,
      "content": "<extra_id_21>",
      "single_word": false,
      "lstrip": false,
      "rstrip": false,
      "normalized": false,
      "special": true
    },
    {
      "id": 32079,
      "content": "<extra_id_20>",
      "single_word": false,
      "lstrip": false,
      "rstrip": false,
      "normalized": false,
      "special": true
    },
    {
      "id": 32080,
      "content": "<extra_id_19>",
      "single_word": false,
      "lstrip": false,
      "rstrip": false,
      "normalized": false,
      "special": true
    },
    {
      "id": 32081,
      "content": "<extra_id_18>",
      "single_word": false,
      "lstrip": false,
      "rstrip": false,
      "normalized": false,
      "special": true
    },
    {
      "id": 32082,
      "content": "<extra_id_17>",
      "single_word": false,
      "lstrip": false,
      "rstrip": false,
      "normalized": false,
      "special": true
    },
    {
      "id": 32083,
      "content": "<extra_id_16>",
      "single_word": false,
      "lstrip": false,
      "rstrip": false,
      "normalized": false,
      "special": true
    },
    {
      "id": 32084,
      "content": "<extra_id_15>",
      "single_word": false,
      "lstrip": false,
      "rstrip": false,
      "normalized": false,
      "special": true
    },
    {
      "id": 32085,
      "content": "<extra_id_14>",
      "single_word": false,
      "lstrip": false,
      "rstrip": false,
      "normalized": false,
      "special": true
    },
    {
      "id": 32086,
      "content": "<extra_id_13>",
      "single_word": false,
      "lstrip": false,
      "rstrip": false,
      "normalized": false,
      "special": true
    },
    {
      "id": 32087,
      "content": "<extra_id_12>",
      "single_word": false,
      "lstrip": false,
      "rstrip": false,
      "normalized": false,
      "special": true
    },
    {
      "id": 32088,
      "content": "<extra_id_11>",
      "single_word": false,
      "lstrip": false,
      "rstrip": false,
      "normalized": false,
      "special": true
    },
    {
      "id": 32089,
      "content": "<extra_id_10>",
      "single_word": false,
      "lstrip": false,
      "rstrip": false,
      "normalized": false,
      "special": true
    },
    {
      "id": 32090,
      "content": "<extra_id_9>",
      "single_word": false,
      "lstrip": false,
      "rstrip": false,
      "normalized": false,
      "special": true
    },
    {
      "id": 32091,
      "content": "<extra_id_8>",
      "single_word": false,
      "lstrip": false,
      "rstrip": false,
      "normalized": false,
      "special": true
    },
    {
      "id": 32092,
      "content": "<extra_id_7>",
      "single_word": false,
      "lstrip": false,
      "rstrip": false,
      "normalized": false,
      "special": true
    },
    {
      "id": 32093,
      "content": "<extra_id_6>",
      "single_word": false,
      "lstrip": false,
      "rstrip": false,
      "normalized": false,
      "special": true
    },
    {
      "id": 32094,
      "content": "<extra_id_5>",
      "single_word": false,
      "lstrip": false,
      "rstrip": false,
      "normalized": false,
      "special": true
    },
    {
      "id": 32095,
      "content": "<extra_id_4>",
      "single_word": false,
      "lstrip": false,
      "rstrip": false,
      "normalized": false,
      "special": true
    },
    {
      "id": 32096,
      "content": "<extra_id_3>",
      "single_word": false,
      "lstrip": false,
      "rstrip": false,
      "normalized": false,
      "special": true
    },
    {
      "id": 32097,
      "content": "<extra_id_2>",
      "single_word": false,
      "lstrip": false,
      "rstrip": false,
      "normalized": false,
      "special": true
    },
    {
      "id": 32098,
      "content": "<extra_id_1>",
      "single_word": false,
      "lstrip": false,
      "rstrip": false,
      "normalized": false,
      "special": true
    },
    {
      "id": 32099,
      "content": "<extra_id_0>",
      "single_word": false,
      "lstrip": false,
      "rstrip": false,
      "normalized": false,
      "special": true
    },
    {
      "id": 32100,
      "content": " <C>",
      "single_word": false,
      "lstrip": false,
      "rstrip": false,
      "normalized": false,
      "special": true
    },
    {
      "id": 32101,
      "content": " <M>",
      "single_word": false,
      "lstrip": false,
      "rstrip": false,
      "normalized": false,
      "special": true
    },
    {
      "id": 32102,
      "content": " <decl>",
      "single_word": false,
      "lstrip": false,
      "rstrip": false,
      "normalized": false,
      "special": true
    },
    {
      "id": 32103,
      "content": " <gF>",
      "single_word": false,
      "lstrip": false,
      "rstrip": false,
      "normalized": false,
      "special": true
    },
    {
      "id": 32104,
      "content": " <gL>",
      "single_word": false,
      "lstrip": false,
      "rstrip": false,
      "normalized": false,
      "special": true
    },
    {
      "id": 32105,
      "content": " <multi>",
      "single_word": false,
      "lstrip": false,
      "rstrip": false,
      "normalized": false,
      "special": true
    },
    {
      "id": 32106,
      "content": " <pF>",
      "single_word": false,
      "lstrip": false,
      "rstrip": false,
      "normalized": false,
      "special": true
    },
    {
      "id": 32107,
      "content": " <pL>",
      "single_word": false,
      "lstrip": false,
      "rstrip": false,
      "normalized": false,
      "special": true
    },
    {
      "id": 32108,
      "content": " <ret>",
      "single_word": false,
      "lstrip": false,
      "rstrip": false,
      "normalized": false,
      "special": true
    },
    {
      "id": 32109,
      "content": " <throw>",
      "single_word": false,
      "lstrip": false,
      "rstrip": false,
      "normalized": false,
      "special": true
    },
    {
      "id": 32110,
      "content": " AALOAD",
      "single_word": false,
      "lstrip": false,
      "rstrip": false,
      "normalized": false,
      "special": true
    },
    {
      "id": 32111,
      "content": " AASTORE",
      "single_word": false,
      "lstrip": false,
      "rstrip": false,
      "normalized": false,
      "special": true
    },
    {
      "id": 32112,
      "content": " ACONST_NULL",
      "single_word": false,
      "lstrip": false,
      "rstrip": false,
      "normalized": false,
      "special": true
    },
    {
      "id": 32113,
      "content": " ALOAD",
      "single_word": false,
      "lstrip": false,
      "rstrip": false,
      "normalized": false,
      "special": true
    },
    {
      "id": 32114,
      "content": " ALOAD_0",
      "single_word": false,
      "lstrip": false,
      "rstrip": false,
      "normalized": false,
      "special": true
    },
    {
      "id": 32115,
      "content": " ALOAD_1",
      "single_word": false,
      "lstrip": false,
      "rstrip": false,
      "normalized": false,
      "special": true
    },
    {
      "id": 32116,
      "content": " ALOAD_2",
      "single_word": false,
      "lstrip": false,
      "rstrip": false,
      "normalized": false,
      "special": true
    },
    {
      "id": 32117,
      "content": " ALOAD_3",
      "single_word": false,
      "lstrip": false,
      "rstrip": false,
      "normalized": false,
      "special": true
    },
    {
      "id": 32118,
      "content": " ANEWARRAY",
      "single_word": false,
      "lstrip": false,
      "rstrip": false,
      "normalized": false,
      "special": true
    },
    {
      "id": 32119,
      "content": " ARETURN",
      "single_word": false,
      "lstrip": false,
      "rstrip": false,
      "normalized": false,
      "special": true
    },
    {
      "id": 32120,
      "content": " ARRAYLENGTH",
      "single_word": false,
      "lstrip": false,
      "rstrip": false,
      "normalized": false,
      "special": true
    },
    {
      "id": 32121,
      "content": " ASTORE",
      "single_word": false,
      "lstrip": false,
      "rstrip": false,
      "normalized": false,
      "special": true
    },
    {
      "id": 32122,
      "content": " ASTORE_0",
      "single_word": false,
      "lstrip": false,
      "rstrip": false,
      "normalized": false,
      "special": true
    },
    {
      "id": 32123,
      "content": " ASTORE_1",
      "single_word": false,
      "lstrip": false,
      "rstrip": false,
      "normalized": false,
      "special": true
    },
    {
      "id": 32124,
      "content": " ASTORE_2",
      "single_word": false,
      "lstrip": false,
      "rstrip": false,
      "normalized": false,
      "special": true
    },
    {
      "id": 32125,
      "content": " ASTORE_3",
      "single_word": false,
      "lstrip": false,
      "rstrip": false,
      "normalized": false,
      "special": true
    },
    {
      "id": 32126,
      "content": " ATHROW",
      "single_word": false,
      "lstrip": false,
      "rstrip": false,
      "normalized": false,
      "special": true
    },
    {
      "id": 32127,
      "content": " BALOAD",
      "single_word": false,
      "lstrip": false,
      "rstrip": false,
      "normalized": false,
      "special": true
    },
    {
      "id": 32128,
      "content": " BASTORE",
      "single_word": false,
      "lstrip": false,
      "rstrip": false,
      "normalized": false,
      "special": true
    },
    {
      "id": 32129,
      "content": " BIPUSH",
      "single_word": false,
      "lstrip": false,
      "rstrip": false,
      "normalized": false,
      "special": true
    },
    {
      "id": 32130,
      "content": " CALOAD",
      "single_word": false,
      "lstrip": false,
      "rstrip": false,
      "normalized": false,
      "special": true
    },
    {
      "id": 32131,
      "content": " CASTORE",
      "single_word": false,
      "lstrip": false,
      "rstrip": false,
      "normalized": false,
      "special": true
    },
    {
      "id": 32132,
      "content": " CHECKCAST",
      "single_word": false,
      "lstrip": false,
      "rstrip": false,
      "normalized": false,
      "special": true
    },
    {
      "id": 32133,
      "content": " D2F",
      "single_word": false,
      "lstrip": false,
      "rstrip": false,
      "normalized": false,
      "special": true
    },
    {
      "id": 32134,
      "content": " D2I",
      "single_word": false,
      "lstrip": false,
      "rstrip": false,
      "normalized": false,
      "special": true
    },
    {
      "id": 32135,
      "content": " D2L",
      "single_word": false,
      "lstrip": false,
      "rstrip": false,
      "normalized": false,
      "special": true
    },
    {
      "id": 32136,
      "content": " DADD",
      "single_word": false,
      "lstrip": false,
      "rstrip": false,
      "normalized": false,
      "special": true
    },
    {
      "id": 32137,
      "content": " DALOAD",
      "single_word": false,
      "lstrip": false,
      "rstrip": false,
      "normalized": false,
      "special": true
    },
    {
      "id": 32138,
      "content": " DASTORE",
      "single_word": false,
      "lstrip": false,
      "rstrip": false,
      "normalized": false,
      "special": true
    },
    {
      "id": 32139,
      "content": " DCMPG",
      "single_word": false,
      "lstrip": false,
      "rstrip": false,
      "normalized": false,
      "special": true
    },
    {
      "id": 32140,
      "content": " DCMPL",
      "single_word": false,
      "lstrip": false,
      "rstrip": false,
      "normalized": false,
      "special": true
    },
    {
      "id": 32141,
      "content": " DCONST_0",
      "single_word": false,
      "lstrip": false,
      "rstrip": false,
      "normalized": false,
      "special": true
    },
    {
      "id": 32142,
      "content": " DCONST_1",
      "single_word": false,
      "lstrip": false,
      "rstrip": false,
      "normalized": false,
      "special": true
    },
    {
      "id": 32143,
      "content": " DDIV",
      "single_word": false,
      "lstrip": false,
      "rstrip": false,
      "normalized": false,
      "special": true
    },
    {
      "id": 32144,
      "content": " DLOAD",
      "single_word": false,
      "lstrip": false,
      "rstrip": false,
      "normalized": false,
      "special": true
    },
    {
      "id": 32145,
      "content": " DLOAD_0",
      "single_word": false,
      "lstrip": false,
      "rstrip": false,
      "normalized": false,
      "special": true
    },
    {
      "id": 32146,
      "content": " DLOAD_1",
      "single_word": false,
      "lstrip": false,
      "rstrip": false,
      "normalized": false,
      "special": true
    },
    {
      "id": 32147,
      "content": " DLOAD_2",
      "single_word": false,
      "lstrip": false,
      "rstrip": false,
      "normalized": false,
      "special": true
    },
    {
      "id": 32148,
      "content": " DLOAD_3",
      "single_word": false,
      "lstrip": false,
      "rstrip": false,
      "normalized": false,
      "special": true
    },
    {
      "id": 32149,
      "content": " DMUL",
      "single_word": false,
      "lstrip": false,
      "rstrip": false,
      "normalized": false,
      "special": true
    },
    {
      "id": 32150,
      "content": " DNEG",
      "single_word": false,
      "lstrip": false,
      "rstrip": false,
      "normalized": false,
      "special": true
    },
    {
      "id": 32151,
      "content": " DREM",
      "single_word": false,
      "lstrip": false,
      "rstrip": false,
      "normalized": false,
      "special": true
    },
    {
      "id": 32152,
      "content": " DRETURN",
      "single_word": false,
      "lstrip": false,
      "rstrip": false,
      "normalized": false,
      "special": true
    },
    {
      "id": 32153,
      "content": " DSTORE",
      "single_word": false,
      "lstrip": false,
      "rstrip": false,
      "normalized": false,
      "special": true
    },
    {
      "id": 32154,
      "content": " DSTORE_0",
      "single_word": false,
      "lstrip": false,
      "rstrip": false,
      "normalized": false,
      "special": true
    },
    {
      "id": 32155,
      "content": " DSTORE_1",
      "single_word": false,
      "lstrip": false,
      "rstrip": false,
      "normalized": false,
      "special": true
    },
    {
      "id": 32156,
      "content": " DSTORE_2",
      "single_word": false,
      "lstrip": false,
      "rstrip": false,
      "normalized": false,
      "special": true
    },
    {
      "id": 32157,
      "content": " DSTORE_3",
      "single_word": false,
      "lstrip": false,
      "rstrip": false,
      "normalized": false,
      "special": true
    },
    {
      "id": 32158,
      "content": " DSUB",
      "single_word": false,
      "lstrip": false,
      "rstrip": false,
      "normalized": false,
      "special": true
    },
    {
      "id": 32159,
      "content": " DUP",
      "single_word": false,
      "lstrip": false,
      "rstrip": false,
      "normalized": false,
      "special": true
    },
    {
      "id": 32160,
      "content": " DUP2",
      "single_word": false,
      "lstrip": false,
      "rstrip": false,
      "normalized": false,
      "special": true
    },
    {
      "id": 32161,
      "content": " DUP2_X1",
      "single_word": false,
      "lstrip": false,
      "rstrip": false,
      "normalized": false,
      "special": true
    },
    {
      "id": 32162,
      "content": " DUP2_X2",
      "single_word": false,
      "lstrip": false,
      "rstrip": false,
      "normalized": false,
      "special": true
    },
    {
      "id": 32163,
      "content": " DUP_X1",
      "single_word": false,
      "lstrip": false,
      "rstrip": false,
      "normalized": false,
      "special": true
    },
    {
      "id": 32164,
      "content": " DUP_X2",
      "single_word": false,
      "lstrip": false,
      "rstrip": false,
      "normalized": false,
      "special": true
    },
    {
      "id": 32165,
      "content": " F2D",
      "single_word": false,
      "lstrip": false,
      "rstrip": false,
      "normalized": false,
      "special": true
    },
    {
      "id": 32166,
      "content": " F2I",
      "single_word": false,
      "lstrip": false,
      "rstrip": false,
      "normalized": false,
      "special": true
    },
    {
      "id": 32167,
      "content": " F2L",
      "single_word": false,
      "lstrip": false,
      "rstrip": false,
      "normalized": false,
      "special": true
    },
    {
      "id": 32168,
      "content": " FADD",
      "single_word": false,
      "lstrip": false,
      "rstrip": false,
      "normalized": false,
      "special": true
    },
    {
      "id": 32169,
      "content": " FALOAD",
      "single_word": false,
      "lstrip": false,
      "rstrip": false,
      "normalized": false,
      "special": true
    },
    {
      "id": 32170,
      "content": " FASTORE",
      "single_word": false,
      "lstrip": false,
      "rstrip": false,
      "normalized": false,
      "special": true
    },
    {
      "id": 32171,
      "content": " FCMPG",
      "single_word": false,
      "lstrip": false,
      "rstrip": false,
      "normalized": false,
      "special": true
    },
    {
      "id": 32172,
      "content": " FCMPL",
      "single_word": false,
      "lstrip": false,
      "rstrip": false,
      "normalized": false,
      "special": true
    },
    {
      "id": 32173,
      "content": " FCONST_0",
      "single_word": false,
      "lstrip": false,
      "rstrip": false,
      "normalized": false,
      "special": true
    },
    {
      "id": 32174,
      "content": " FCONST_1",
      "single_word": false,
      "lstrip": false,
      "rstrip": false,
      "normalized": false,
      "special": true
    },
    {
      "id": 32175,
      "content": " FCONST_2",
      "single_word": false,
      "lstrip": false,
      "rstrip": false,
      "normalized": false,
      "special": true
    },
    {
      "id": 32176,
      "content": " FDIV",
      "single_word": false,
      "lstrip": false,
      "rstrip": false,
      "normalized": false,
      "special": true
    },
    {
      "id": 32177,
      "content": " FLOAD",
      "single_word": false,
      "lstrip": false,
      "rstrip": false,
      "normalized": false,
      "special": true
    },
    {
      "id": 32178,
      "content": " FLOAD_0",
      "single_word": false,
      "lstrip": false,
      "rstrip": false,
      "normalized": false,
      "special": true
    },
    {
      "id": 32179,
      "content": " FLOAD_1",
      "single_word": false,
      "lstrip": false,
      "rstrip": false,
      "normalized": false,
      "special": true
    },
    {
      "id": 32180,
      "content": " FLOAD_2",
      "single_word": false,
      "lstrip": false,
      "rstrip": false,
      "normalized": false,
      "special": true
    },
    {
      "id": 32181,
      "content": " FLOAD_3",
      "single_word": false,
      "lstrip": false,
      "rstrip": false,
      "normalized": false,
      "special": true
    },
    {
      "id": 32182,
      "content": " FMUL",
      "single_word": false,
      "lstrip": false,
      "rstrip": false,
      "normalized": false,
      "special": true
    },
    {
      "id": 32183,
      "content": " FNEG",
      "single_word": false,
      "lstrip": false,
      "rstrip": false,
      "normalized": false,
      "special": true
    },
    {
      "id": 32184,
      "content": " FREM",
      "single_word": false,
      "lstrip": false,
      "rstrip": false,
      "normalized": false,
      "special": true
    },
    {
      "id": 32185,
      "content": " FRETURN",
      "single_word": false,
      "lstrip": false,
      "rstrip": false,
      "normalized": false,
      "special": true
    },
    {
      "id": 32186,
      "content": " FSTORE",
      "single_word": false,
      "lstrip": false,
      "rstrip": false,
      "normalized": false,
      "special": true
    },
    {
      "id": 32187,
      "content": " FSTORE_0",
      "single_word": false,
      "lstrip": false,
      "rstrip": false,
      "normalized": false,
      "special": true
    },
    {
      "id": 32188,
      "content": " FSTORE_1",
      "single_word": false,
      "lstrip": false,
      "rstrip": false,
      "normalized": false,
      "special": true
    },
    {
      "id": 32189,
      "content": " FSTORE_2",
      "single_word": false,
      "lstrip": false,
      "rstrip": false,
      "normalized": false,
      "special": true
    },
    {
      "id": 32190,
      "content": " FSTORE_3",
      "single_word": false,
      "lstrip": false,
      "rstrip": false,
      "normalized": false,
      "special": true
    },
    {
      "id": 32191,
      "content": " FSUB",
      "single_word": false,
      "lstrip": false,
      "rstrip": false,
      "normalized": false,
      "special": true
    },
    {
      "id": 32192,
      "content": " GETFIELD",
      "single_word": false,
      "lstrip": false,
      "rstrip": false,
      "normalized": false,
      "special": true
    },
    {
      "id": 32193,
      "content": " GETSTATIC",
      "single_word": false,
      "lstrip": false,
      "rstrip": false,
      "normalized": false,
      "special": true
    },
    {
      "id": 32194,
      "content": " GOTO",
      "single_word": false,
      "lstrip": false,
      "rstrip": false,
      "normalized": false,
      "special": true
    },
    {
      "id": 32195,
      "content": " GOTO_W",
      "single_word": false,
      "lstrip": false,
      "rstrip": false,
      "normalized": false,
      "special": true
    },
    {
      "id": 32196,
      "content": " I2B",
      "single_word": false,
      "lstrip": false,
      "rstrip": false,
      "normalized": false,
      "special": true
    },
    {
      "id": 32197,
      "content": " I2C",
      "single_word": false,
      "lstrip": false,
      "rstrip": false,
      "normalized": false,
      "special": true
    },
    {
      "id": 32198,
      "content": " I2D",
      "single_word": false,
      "lstrip": false,
      "rstrip": false,
      "normalized": false,
      "special": true
    },
    {
      "id": 32199,
      "content": " I2F",
      "single_word": false,
      "lstrip": false,
      "rstrip": false,
      "normalized": false,
      "special": true
    },
    {
      "id": 32200,
      "content": " I2L",
      "single_word": false,
      "lstrip": false,
      "rstrip": false,
      "normalized": false,
      "special": true
    },
    {
      "id": 32201,
      "content": " I2S",
      "single_word": false,
      "lstrip": false,
      "rstrip": false,
      "normalized": false,
      "special": true
    },
    {
      "id": 32202,
      "content": " IADD",
      "single_word": false,
      "lstrip": false,
      "rstrip": false,
      "normalized": false,
      "special": true
    },
    {
      "id": 32203,
      "content": " IALOAD",
      "single_word": false,
      "lstrip": false,
      "rstrip": false,
      "normalized": false,
      "special": true
    },
    {
      "id": 32204,
      "content": " IAND",
      "single_word": false,
      "lstrip": false,
      "rstrip": false,
      "normalized": false,
      "special": true
    },
    {
      "id": 32205,
      "content": " IASTORE",
      "single_word": false,
      "lstrip": false,
      "rstrip": false,
      "normalized": false,
      "special": true
    },
    {
      "id": 32206,
      "content": " ICONST_0",
      "single_word": false,
      "lstrip": false,
      "rstrip": false,
      "normalized": false,
      "special": true
    },
    {
      "id": 32207,
      "content": " ICONST_1",
      "single_word": false,
      "lstrip": false,
      "rstrip": false,
      "normalized": false,
      "special": true
    },
    {
      "id": 32208,
      "content": " ICONST_2",
      "single_word": false,
      "lstrip": false,
      "rstrip": false,
      "normalized": false,
      "special": true
    },
    {
      "id": 32209,
      "content": " ICONST_3",
      "single_word": false,
      "lstrip": false,
      "rstrip": false,
      "normalized": false,
      "special": true
    },
    {
      "id": 32210,
      "content": " ICONST_4",
      "single_word": false,
      "lstrip": false,
      "rstrip": false,
      "normalized": false,
      "special": true
    },
    {
      "id": 32211,
      "content": " ICONST_5",
      "single_word": false,
      "lstrip": false,
      "rstrip": false,
      "normalized": false,
      "special": true
    },
    {
      "id": 32212,
      "content": " ICONST_M1",
      "single_word": false,
      "lstrip": false,
      "rstrip": false,
      "normalized": false,
      "special": true
    },
    {
      "id": 32213,
      "content": " IDIV",
      "single_word": false,
      "lstrip": false,
      "rstrip": false,
      "normalized": false,
      "special": true
    },
    {
      "id": 32214,
      "content": " IFEQ",
      "single_word": false,
      "lstrip": false,
      "rstrip": false,
      "normalized": false,
      "special": true
    },
    {
      "id": 32215,
      "content": " IFGE",
      "single_word": false,
      "lstrip": false,
      "rstrip": false,
      "normalized": false,
      "special": true
    },
    {
      "id": 32216,
      "content": " IFGT",
      "single_word": false,
      "lstrip": false,
      "rstrip": false,
      "normalized": false,
      "special": true
    },
    {
      "id": 32217,
      "content": " IFLE",
      "single_word": false,
      "lstrip": false,
      "rstrip": false,
      "normalized": false,
      "special": true
    },
    {
      "id": 32218,
      "content": " IFLT",
      "single_word": false,
      "lstrip": false,
      "rstrip": false,
      "normalized": false,
      "special": true
    },
    {
      "id": 32219,
      "content": " IFNE",
      "single_word": false,
      "lstrip": false,
      "rstrip": false,
      "normalized": false,
      "special": true
    },
    {
      "id": 32220,
      "content": " IFNONNULL",
      "single_word": false,
      "lstrip": false,
      "rstrip": false,
      "normalized": false,
      "special": true
    },
    {
      "id": 32221,
      "content": " IFNULL",
      "single_word": false,
      "lstrip": false,
      "rstrip": false,
      "normalized": false,
      "special": true
    },
    {
      "id": 32222,
      "content": " IF_ACMPEQ",
      "single_word": false,
      "lstrip": false,
      "rstrip": false,
      "normalized": false,
      "special": true
    },
    {
      "id": 32223,
      "content": " IF_ACMPNE",
      "single_word": false,
      "lstrip": false,
      "rstrip": false,
      "normalized": false,
      "special": true
    },
    {
      "id": 32224,
      "content": " IF_ICMPEQ",
      "single_word": false,
      "lstrip": false,
      "rstrip": false,
      "normalized": false,
      "special": true
    },
    {
      "id": 32225,
      "content": " IF_ICMPGE",
      "single_word": false,
      "lstrip": false,
      "rstrip": false,
      "normalized": false,
      "special": true
    },
    {
      "id": 32226,
      "content": " IF_ICMPGT",
      "single_word": false,
      "lstrip": false,
      "rstrip": false,
      "normalized": false,
      "special": true
    },
    {
      "id": 32227,
      "content": " IF_ICMPLE",
      "single_word": false,
      "lstrip": false,
      "rstrip": false,
      "normalized": false,
      "special": true
    },
    {
      "id": 32228,
      "content": " IF_ICMPLT",
      "single_word": false,
      "lstrip": false,
      "rstrip": false,
      "normalized": false,
      "special": true
    },
    {
      "id": 32229,
      "content": " IF_ICMPNE",
      "single_word": false,
      "lstrip": false,
      "rstrip": false,
      "normalized": false,
      "special": true
    },
    {
      "id": 32230,
      "content": " IINC",
      "single_word": false,
      "lstrip": false,
      "rstrip": false,
      "normalized": false,
      "special": true
    },
    {
      "id": 32231,
      "content": " ILOAD",
      "single_word": false,
      "lstrip": false,
      "rstrip": false,
      "normalized": false,
      "special": true
    },
    {
      "id": 32232,
      "content": " ILOAD_0",
      "single_word": false,
      "lstrip": false,
      "rstrip": false,
      "normalized": false,
      "special": true
    },
    {
      "id": 32233,
      "content": " ILOAD_1",
      "single_word": false,
      "lstrip": false,
      "rstrip": false,
      "normalized": false,
      "special": true
    },
    {
      "id": 32234,
      "content": " ILOAD_2",
      "single_word": false,
      "lstrip": false,
      "rstrip": false,
      "normalized": false,
      "special": true
    },
    {
      "id": 32235,
      "content": " ILOAD_3",
      "single_word": false,
      "lstrip": false,
      "rstrip": false,
      "normalized": false,
      "special": true
    },
    {
      "id": 32236,
      "content": " IMUL",
      "single_word": false,
      "lstrip": false,
      "rstrip": false,
      "normalized": false,
      "special": true
    },
    {
      "id": 32237,
      "content": " INEG",
      "single_word": false,
      "lstrip": false,
      "rstrip": false,
      "normalized": false,
      "special": true
    },
    {
      "id": 32238,
      "content": " INSTANCEOF",
      "single_word": false,
      "lstrip": false,
      "rstrip": false,
      "normalized": false,
      "special": true
    },
    {
      "id": 32239,
      "content": " INVOKEDYNAMIC",
      "single_word": false,
      "lstrip": false,
      "rstrip": false,
      "normalized": false,
      "special": true
    },
    {
      "id": 32240,
      "content": " INVOKEINTERFACE",
      "single_word": false,
      "lstrip": false,
      "rstrip": false,
      "normalized": false,
      "special": true
    },
    {
      "id": 32241,
      "content": " INVOKESPECIAL",
      "single_word": false,
      "lstrip": false,
      "rstrip": false,
      "normalized": false,
      "special": true
    },
    {
      "id": 32242,
      "content": " INVOKESTATIC",
      "single_word": false,
      "lstrip": false,
      "rstrip": false,
      "normalized": false,
      "special": true
    },
    {
      "id": 32243,
      "content": " INVOKEVIRTUAL",
      "single_word": false,
      "lstrip": false,
      "rstrip": false,
      "normalized": false,
      "special": true
    },
    {
      "id": 32244,
      "content": " IOR",
      "single_word": false,
      "lstrip": false,
      "rstrip": false,
      "normalized": false,
      "special": true
    },
    {
      "id": 32245,
      "content": " IREM",
      "single_word": false,
      "lstrip": false,
      "rstrip": false,
      "normalized": false,
      "special": true
    },
    {
      "id": 32246,
      "content": " IRETURN",
      "single_word": false,
      "lstrip": false,
      "rstrip": false,
      "normalized": false,
      "special": true
    },
    {
      "id": 32247,
      "content": " ISHL",
      "single_word": false,
      "lstrip": false,
      "rstrip": false,
      "normalized": false,
      "special": true
    },
    {
      "id": 32248,
      "content": " ISHR",
      "single_word": false,
      "lstrip": false,
      "rstrip": false,
      "normalized": false,
      "special": true
    },
    {
      "id": 32249,
      "content": " ISTORE",
      "single_word": false,
      "lstrip": false,
      "rstrip": false,
      "normalized": false,
      "special": true
    },
    {
      "id": 32250,
      "content": " ISTORE_0",
      "single_word": false,
      "lstrip": false,
      "rstrip": false,
      "normalized": false,
      "special": true
    },
    {
      "id": 32251,
      "content": " ISTORE_1",
      "single_word": false,
      "lstrip": false,
      "rstrip": false,
      "normalized": false,
      "special": true
    },
    {
      "id": 32252,
      "content": " ISTORE_2",
      "single_word": false,
      "lstrip": false,
      "rstrip": false,
      "normalized": false,
      "special": true
    },
    {
      "id": 32253,
      "content": " ISTORE_3",
      "single_word": false,
      "lstrip": false,
      "rstrip": false,
      "normalized": false,
      "special": true
    },
    {
      "id": 32254,
      "content": " ISUB",
      "single_word": false,
      "lstrip": false,
      "rstrip": false,
      "normalized": false,
      "special": true
    },
    {
      "id": 32255,
      "content": " IUSHR",
      "single_word": false,
      "lstrip": false,
      "rstrip": false,
      "normalized": false,
      "special": true
    },
    {
      "id": 32256,
      "content": " IXOR",
      "single_word": false,
      "lstrip": false,
      "rstrip": false,
      "normalized": false,
      "special": true
    },
    {
      "id": 32257,
      "content": " JSR",
      "single_word": false,
      "lstrip": false,
      "rstrip": false,
      "normalized": false,
      "special": true
    },
    {
      "id": 32258,
      "content": " JSR_W",
      "single_word": false,
      "lstrip": false,
      "rstrip": false,
      "normalized": false,
      "special": true
    },
    {
      "id": 32259,
      "content": " L2D",
      "single_word": false,
      "lstrip": false,
      "rstrip": false,
      "normalized": false,
      "special": true
    },
    {
      "id": 32260,
      "content": " L2F",
      "single_word": false,
      "lstrip": false,
      "rstrip": false,
      "normalized": false,
      "special": true
    },
    {
      "id": 32261,
      "content": " L2I",
      "single_word": false,
      "lstrip": false,
      "rstrip": false,
      "normalized": false,
      "special": true
    },
    {
      "id": 32262,
      "content": " LADD",
      "single_word": false,
      "lstrip": false,
      "rstrip": false,
      "normalized": false,
      "special": true
    },
    {
      "id": 32263,
      "content": " LALOAD",
      "single_word": false,
      "lstrip": false,
      "rstrip": false,
      "normalized": false,
      "special": true
    },
    {
      "id": 32264,
      "content": " LAND",
      "single_word": false,
      "lstrip": false,
      "rstrip": false,
      "normalized": false,
      "special": true
    },
    {
      "id": 32265,
      "content": " LASTORE",
      "single_word": false,
      "lstrip": false,
      "rstrip": false,
      "normalized": false,
      "special": true
    },
    {
      "id": 32266,
      "content": " LCMP",
      "single_word": false,
      "lstrip": false,
      "rstrip": false,
      "normalized": false,
      "special": true
    },
    {
      "id": 32267,
      "content": " LCONST_0",
      "single_word": false,
      "lstrip": false,
      "rstrip": false,
      "normalized": false,
      "special": true
    },
    {
      "id": 32268,
      "content": " LCONST_1",
      "single_word": false,
      "lstrip": false,
      "rstrip": false,
      "normalized": false,
      "special": true
    },
    {
      "id": 32269,
      "content": " LDC",
      "single_word": false,
      "lstrip": false,
      "rstrip": false,
      "normalized": false,
      "special": true
    },
    {
      "id": 32270,
      "content": " LDC2_W",
      "single_word": false,
      "lstrip": false,
      "rstrip": false,
      "normalized": false,
      "special": true
    },
    {
      "id": 32271,
      "content": " LDC_END",
      "single_word": false,
      "lstrip": false,
      "rstrip": false,
      "normalized": false,
      "special": true
    },
    {
      "id": 32272,
      "content": " LDC_W",
      "single_word": false,
      "lstrip": false,
      "rstrip": false,
      "normalized": false,
      "special": true
    },
    {
      "id": 32273,
      "content": " LDIV",
      "single_word": false,
      "lstrip": false,
      "rstrip": false,
      "normalized": false,
      "special": true
    },
    {
      "id": 32274,
      "content": " LLOAD",
      "single_word": false,
      "lstrip": false,
      "rstrip": false,
      "normalized": false,
      "special": true
    },
    {
      "id": 32275,
      "content": " LLOAD_0",
      "single_word": false,
      "lstrip": false,
      "rstrip": false,
      "normalized": false,
      "special": true
    },
    {
      "id": 32276,
      "content": " LLOAD_1",
      "single_word": false,
      "lstrip": false,
      "rstrip": false,
      "normalized": false,
      "special": true
    },
    {
      "id": 32277,
      "content": " LLOAD_2",
      "single_word": false,
      "lstrip": false,
      "rstrip": false,
      "normalized": false,
      "special": true
    },
    {
      "id": 32278,
      "content": " LLOAD_3",
      "single_word": false,
      "lstrip": false,
      "rstrip": false,
      "normalized": false,
      "special": true
    },
    {
      "id": 32279,
      "content": " LMUL",
      "single_word": false,
      "lstrip": false,
      "rstrip": false,
      "normalized": false,
      "special": true
    },
    {
      "id": 32280,
      "content": " LNEG",
      "single_word": false,
      "lstrip": false,
      "rstrip": false,
      "normalized": false,
      "special": true
    },
    {
      "id": 32281,
      "content": " LOOKUPSWITCH",
      "single_word": false,
      "lstrip": false,
      "rstrip": false,
      "normalized": false,
      "special": true
    },
    {
      "id": 32282,
      "content": " LOR",
      "single_word": false,
      "lstrip": false,
      "rstrip": false,
      "normalized": false,
      "special": true
    },
    {
      "id": 32283,
      "content": " LREM",
      "single_word": false,
      "lstrip": false,
      "rstrip": false,
      "normalized": false,
      "special": true
    },
    {
      "id": 32284,
      "content": " LRETURN",
      "single_word": false,
      "lstrip": false,
      "rstrip": false,
      "normalized": false,
      "special": true
    },
    {
      "id": 32285,
      "content": " LSHL",
      "single_word": false,
      "lstrip": false,
      "rstrip": false,
      "normalized": false,
      "special": true
    },
    {
      "id": 32286,
      "content": " LSHR",
      "single_word": false,
      "lstrip": false,
      "rstrip": false,
      "normalized": false,
      "special": true
    },
    {
      "id": 32287,
      "content": " LSTORE",
      "single_word": false,
      "lstrip": false,
      "rstrip": false,
      "normalized": false,
      "special": true
    },
    {
      "id": 32288,
      "content": " LSTORE_0",
      "single_word": false,
      "lstrip": false,
      "rstrip": false,
      "normalized": false,
      "special": true
    },
    {
      "id": 32289,
      "content": " LSTORE_1",
      "single_word": false,
      "lstrip": false,
      "rstrip": false,
      "normalized": false,
      "special": true
    },
    {
      "id": 32290,
      "content": " LSTORE_2",
      "single_word": false,
      "lstrip": false,
      "rstrip": false,
      "normalized": false,
      "special": true
    },
    {
      "id": 32291,
      "content": " LSTORE_3",
      "single_word": false,
      "lstrip": false,
      "rstrip": false,
      "normalized": false,
      "special": true
    },
    {
      "id": 32292,
      "content": " LSUB",
      "single_word": false,
      "lstrip": false,
      "rstrip": false,
      "normalized": false,
      "special": true
    },
    {
      "id": 32293,
      "content": " LUSHR",
      "single_word": false,
      "lstrip": false,
      "rstrip": false,
      "normalized": false,
      "special": true
    },
    {
      "id": 32294,
      "content": " LXOR",
      "single_word": false,
      "lstrip": false,
      "rstrip": false,
      "normalized": false,
      "special": true
    },
    {
      "id": 32295,
      "content": " MONITORENTER",
      "single_word": false,
      "lstrip": false,
      "rstrip": false,
      "normalized": false,
      "special": true
    },
    {
      "id": 32296,
      "content": " MONITOREXIT",
      "single_word": false,
      "lstrip": false,
      "rstrip": false,
      "normalized": false,
      "special": true
    },
    {
      "id": 32297,
      "content": " MULTIANEWARRAY",
      "single_word": false,
      "lstrip": false,
      "rstrip": false,
      "normalized": false,
      "special": true
    },
    {
      "id": 32298,
      "content": " NEW",
      "single_word": false,
      "lstrip": false,
      "rstrip": false,
      "normalized": false,
      "special": true
    },
    {
      "id": 32299,
      "content": " NEWARRAY",
      "single_word": false,
      "lstrip": false,
      "rstrip": false,
      "normalized": false,
      "special": true
    },
    {
      "id": 32300,
      "content": " NOP",
      "single_word": false,
      "lstrip": false,
      "rstrip": false,
      "normalized": false,
      "special": true
    },
    {
      "id": 32301,
      "content": " POP",
      "single_word": false,
      "lstrip": false,
      "rstrip": false,
      "normalized": false,
      "special": true
    },
    {
      "id": 32302,
      "content": " POP2",
      "single_word": false,
      "lstrip": false,
      "rstrip": false,
      "normalized": false,
      "special": true
    },
    {
      "id": 32303,
      "content": " PUTFIELD",
      "single_word": false,
      "lstrip": false,
      "rstrip": false,
      "normalized": false,
      "special": true
    },
    {
      "id": 32304,
      "content": " PUTSTATIC",
      "single_word": false,
      "lstrip": false,
      "rstrip": false,
      "normalized": false,
      "special": true
    },
    {
      "id": 32305,
      "content": " RET",
      "single_word": false,
      "lstrip": false,
      "rstrip": false,
      "normalized": false,
      "special": true
    },
    {
      "id": 32306,
      "content": " RETURN",
      "single_word": false,
      "lstrip": false,
      "rstrip": false,
      "normalized": false,
      "special": true
    },
    {
      "id": 32307,
      "content": " SALOAD",
      "single_word": false,
      "lstrip": false,
      "rstrip": false,
      "normalized": false,
      "special": true
    },
    {
      "id": 32308,
      "content": " SASTORE",
      "single_word": false,
      "lstrip": false,
      "rstrip": false,
      "normalized": false,
      "special": true
    },
    {
      "id": 32309,
      "content": " SIPUSH",
      "single_word": false,
      "lstrip": false,
      "rstrip": false,
      "normalized": false,
      "special": true
    },
    {
      "id": 32310,
      "content": " SWAP",
      "single_word": false,
      "lstrip": false,
      "rstrip": false,
      "normalized": false,
      "special": true
    },
    {
      "id": 32311,
      "content": " TABLESWITCH",
      "single_word": false,
      "lstrip": false,
      "rstrip": false,
      "normalized": false,
      "special": true
    },
    {
      "id": 32312,
      "content": " WIDE",
      "single_word": false,
      "lstrip": false,
      "rstrip": false,
      "normalized": false,
      "special": true
    },
    {
      "id": 32313,
      "content": "<|UNKNOWN|>",
      "single_word": false,
      "lstrip": false,
      "rstrip": false,
      "normalized": false,
      "special": true
    },
    {
      "id": 32314,
      "content": "<cls>",
      "single_word": false,
      "lstrip": false,
      "rstrip": false,
      "normalized": false,
      "special": true
    },
    {
      "id": 32315,
      "content": "<sep>",
      "single_word": false,
      "lstrip": false,
      "rstrip": false,
      "normalized": false,
      "special": true
    }
  ],
  "normalizer": null,
  "pre_tokenizer": {
    "type": "ByteLevel",
    "add_prefix_space": false,
    "trim_offsets": true
  },
  "post_processor": {
    "type": "RobertaProcessing",
    "sep": [
      "</s>",
      2
    ],
    "cls": [
      "<s>",
      1
    ],
    "trim_offsets": true,
    "add_prefix_space": false
  },
  "decoder": {
    "type": "ByteLevel",
    "add_prefix_space": true,
    "trim_offsets": true
  },
  "model": {
    "type": "BPE",
    "dropout": null,
    "unk_token": null,
    "continuing_subword_prefix": "",
    "end_of_word_suffix": "",
    "fuse_unk": false,
    "vocab": {
      "<pad>": 0,
      "<s>": 1,
      "</s>": 2,
      "<unk>": 3,
      "<mask>": 4,
      "!": 5,
      "\"": 6,
      "#": 7,
      "$": 8,
      "%": 9,
      "&": 10,
      "'": 11,
      "(": 12,
      ")": 13,
      "*": 14,
      "+": 15,
      ",": 16,
      "-": 17,
      ".": 18,
      "/": 19,
      "0": 20,
      "1": 21,
      "2": 22,
      "3": 23,
      "4": 24,
      "5": 25,
      "6": 26,
      "7": 27,
      "8": 28,
      "9": 29,
      ":": 30,
      ";": 31,
      "<": 32,
      "=": 33,
      ">": 34,
      "?": 35,
      "@": 36,
      "A": 37,
      "B": 38,
      "C": 39,
      "D": 40,
      "E": 41,
      "F": 42,
      "G": 43,
      "H": 44,
      "I": 45,
      "J": 46,
      "K": 47,
      "L": 48,
      "M": 49,
      "N": 50,
      "O": 51,
      "P": 52,
      "Q": 53,
      "R": 54,
      "S": 55,
      "T": 56,
      "U": 57,
      "V": 58,
      "W": 59,
      "X": 60,
      "Y": 61,
      "Z": 62,
      "[": 63,
      "\\": 64,
      "]": 65,
      "^": 66,
      "_": 67,
      "`": 68,
      "a": 69,
      "b": 70,
      "c": 71,
      "d": 72,
      "e": 73,
      "f": 74,
      "g": 75,
      "h": 76,
      "i": 77,
      "j": 78,
      "k": 79,
      "l": 80,
      "m": 81,
      "n": 82,
      "o": 83,
      "p": 84,
      "q": 85,
      "r": 86,
      "s": 87,
      "t": 88,
      "u": 89,
      "v": 90,
      "w": 91,
      "x": 92,
      "y": 93,
      "z": 94,
      "{": 95,
      "|": 96,
      "}": 97,
      "~": 98,
      "¡": 99,
      "¢": 100,
      "£": 101,
      "¤": 102,
      "¥": 103,
      "¦": 104,
      "§": 105,
      "¨": 106,
      "©": 107,
      "ª": 108,
      "«": 109,
      "¬": 110,
      "®": 111,
      "¯": 112,
      "°": 113,
      "±": 114,
      "²": 115,
      "³": 116,
      "´": 117,
      "µ": 118,
      "¶": 119,
      "·": 120,
      "¸": 121,
      "¹": 122,
      "º": 123,
      "»": 124,
      "¼": 125,
      "½": 126,
      "¾": 127,
      "¿": 128,
      "À": 129,
      "Á": 130,
      "Â": 131,
      "Ã": 132,
      "Ä": 133,
      "Å": 134,
      "Æ": 135,
      "Ç": 136,
      "È": 137,
      "É": 138,
      "Ê": 139,
      "Ë": 140,
      "Ì": 141,
      "Í": 142,
      "Î": 143,
      "Ï": 144,
      "Ð": 145,
      "Ñ": 146,
      "Ò": 147,
      "Ó": 148,
      "Ô": 149,
      "Õ": 150,
      "Ö": 151,
      "×": 152,
      "Ø": 153,
      "Ù": 154,
      "Ú": 155,
      "Û": 156,
      "Ü": 157,
      "Ý": 158,
      "Þ": 159,
      "ß": 160,
      "à": 161,
      "á": 162,
      "â": 163,
      "ã": 164,
      "ä": 165,
      "å": 166,
      "æ": 167,
      "ç": 168,
      "è": 169,
      "é": 170,
      "ê": 171,
      "ë": 172,
      "ì": 173,
      "í": 174,
      "î": 175,
      "ï": 176,
      "ð": 177,
      "ñ": 178,
      "ò": 179,
      "ó": 180,
      "ô": 181,
      "õ": 182,
      "ö": 183,
      "÷": 184,
      "ø": 185,
      "ù": 186,
      "ú": 187,
      "û": 188,
      "ü": 189,
      "ý": 190,
      "þ": 191,
      "ÿ": 192,
      "Ā": 193,
      "ā": 194,
      "Ă": 195,
      "ă": 196,
      "Ą": 197,
      "ą": 198,
      "Ć": 199,
      "ć": 200,
      "Ĉ": 201,
      "ĉ": 202,
      "Ċ": 203,
      "ċ": 204,
      "Č": 205,
      "č": 206,
      "Ď": 207,
      "ď": 208,
      "Đ": 209,
      "đ": 210,
      "Ē": 211,
      "ē": 212,
      "Ĕ": 213,
      "ĕ": 214,
      "Ė": 215,
      "ė": 216,
      "Ę": 217,
      "ę": 218,
      "Ě": 219,
      "ě": 220,
      "Ĝ": 221,
      "ĝ": 222,
      "Ğ": 223,
      "ğ": 224,
      "Ġ": 225,
      "ġ": 226,
      "Ģ": 227,
      "ģ": 228,
      "Ĥ": 229,
      "ĥ": 230,
      "Ħ": 231,
      "ħ": 232,
      "Ĩ": 233,
      "ĩ": 234,
      "Ī": 235,
      "ī": 236,
      "Ĭ": 237,
      "ĭ": 238,
      "Į": 239,
      "į": 240,
      "İ": 241,
      "ı": 242,
      "Ĳ": 243,
      "ĳ": 244,
      "Ĵ": 245,
      "ĵ": 246,
      "Ķ": 247,
      "ķ": 248,
      "ĸ": 249,
      "Ĺ": 250,
      "ĺ": 251,
      "Ļ": 252,
      "ļ": 253,
      "Ľ": 254,
      "ľ": 255,
      "Ŀ": 256,
      "ŀ": 257,
      "Ł": 258,
      "ł": 259,
      "Ń": 260,
      "Ġ(": 261,
      "Ġ)": 262,
      "Ġ.": 263,
      "er": 264,
      "on": 265,
      "re": 266,
      "in": 267,
      "Ġt": 268,
      "Ġ,": 269,
      "at": 270,
      "Ġ$": 271,
      "Ġs": 272,
      "Ġ=": 273,
      "Ġ;": 274,
      "en": 275,
      "Ġc": 276,
      "Ġi": 277,
      "et": 278,
      "Ġa": 279,
      "or": 280,
      "es": 281,
      "ĠĠ": 282,
      "Ġre": 283,
      "Ġf": 284,
      "ion": 285,
      "Ġth": 286,
      "al": 287,
      "Ġ{": 288,
      "Ġ}": 289,
      "Ġn": 290,
      "is": 291,
      "el": 292,
      "Ġp": 293,
      "Ġ:": 294,
      "ur": 295,
      "Ġ'": 296,
      "ar": 297,
      "le": 298,
      "ct": 299,
      "Ġ-": 300,
      "am": 301,
      "Ġd": 302,
      "ro": 303,
      "an": 304,
      "it": 305,
      "Ġ[": 306,
      "se": 307,
      "Ġ]": 308,
      "Ġif": 309,
      "ing": 310,
      "ce": 311,
      "Ġm": 312,
      "tr": 313,
      "Ġg": 314,
      "Ġ\"": 315,
      "Ġin": 316,
      "Ġ->": 317,
      "un": 318,
      "ent": 319,
      "Ġo": 320,
      "urn": 321,
      "ut": 322,
      "de": 323,
      "Ġb": 324,
      "Ġret": 325,
      "Ġthe": 326,
      "Ġreturn": 327,
      "Ġl": 328,
      "ed": 329,
      "il": 330,
      "Ġv": 331,
      "ul": 332,
      "Ġthis": 333,
      "st": 334,
      "ic": 335,
      "Ġget": 336,
      "pt": 337,
      "ex": 338,
      "ame": 339,
      "ate": 340,
      "Ġw": 341,
      "Ġ/": 342,
      "ch": 343,
      "ue": 344,
      "as": 345,
      "ag": 346,
      "pe": 347,
      "ĠS": 348,
      "ction": 349,
      "id": 350,
      "em": 351,
      "ot": 352,
      "Ġis": 353,
      "ra": 354,
      "ol": 355,
      "Ġcon": 356,
      "Ġsel": 357,
      "Ġto": 358,
      "ew": 359,
      "ig": 360,
      "ad": 361,
      "om": 362,
      "ck": 363,
      "Ġfor": 364,
      "Ġself": 365,
      "Ġh": 366,
      "ation": 367,
      "Ġ//": 368,
      "od": 369,
      "err": 370,
      "tring": 371,
      "qu": 372,
      "ub": 373,
      "Ġ0": 374,
      "ption": 375,
      "ist": 376,
      "ĠĠĠĠ": 377,
      "ab": 378,
      "um": 379,
      "Ġ*": 380,
      "im": 381,
      "In": 382,
      "lo": 383,
      "Ġst": 384,
      "ĠC": 385,
      "ect": 386,
      "ter": 387,
      "ype": 388,
      "Ġ_": 389,
      "ode": 390,
      "alue": 391,
      "Ġan": 392,
      "Ġerr": 393,
      "Ġnew": 394,
      "est": 395,
      "ata": 396,
      "Ġ+": 397,
      "ile": 398,
      "ĠT": 399,
      "Ġres": 400,
      "Ġ!": 401,
      "ey": 402,
      "ess": 403,
      "Ġ1": 404,
      "Ġ>": 405,
      "ult": 406,
      "us": 407,
      "ext": 408,
      "end": 409,
      "age": 410,
      "Ġ<": 411,
      "pl": 412,
      "--": 413,
      "ers": 414,
      "Ġel": 415,
      "up": 416,
      "Ġk": 417,
      "unction": 418,
      "Ġar": 419,
      "ull": 420,
      "ath": 421,
      "Ġ==": 422,
      "ĠN": 423,
      "Ex": 424,
      "Ġe": 425,
      "Re": 426,
      "iv": 427,
      "ass": 428,
      "able": 429,
      "if": 430,
      "Ġex": 431,
      "ĠA": 432,
      "Ġtr": 433,
      "Ġof": 434,
      "ray": 435,
      "Ġr": 436,
      "Ġlo": 437,
      "ap": 438,
      "aram": 439,
      "ubl": 440,
      "bj": 441,
      "Con": 442,
      "Ġde": 443,
      "Ġset": 444,
      "Ġfunction": 445,
      "Ġnull": 446,
      "ublic": 447,
      "ase": 448,
      "dd": 449,
      "Ġpro": 450,
      "th": 451,
      "iz": 452,
      "ĠP": 453,
      "all": 454,
      "res": 455,
      "quest": 456,
      "per": 457,
      "put": 458,
      "lass": 459,
      "Ġvalue": 460,
      "Name": 461,
      "Ġch": 462,
      "ĠD": 463,
      "and": 464,
      "oun": 465,
      "Ġcont": 466,
      "ĠI": 467,
      "Ġ#": 468,
      "Ġelse": 469,
      "fig": 470,
      "Ġand": 471,
      "ception": 472,
      "Ġ&": 473,
      "int": 474,
      "ment": 475,
      "one": 476,
      "our": 477,
      "ĠF": 478,
      "ore": 479,
      "Ġ!=": 480,
      "ir": 481,
      "public": 482,
      "ith": 483,
      "ack": 484,
      "art": 485,
      "Ġnot": 486,
      "Ġas": 487,
      "eld": 488,
      "bject": 489,
      "ĠM": 490,
      "ield": 491,
      "row": 492,
      "Ġ::": 493,
      "ime": 494,
      "ib": 495,
      "nt": 496,
      "ach": 497,
      "Ġkey": 498,
      "ort": 499,
      "pon": 500,
      "Ġdata": 501,
      "ver": 502,
      "Exception": 503,
      "oc": 504,
      "atch": 505,
      "Ġbe": 506,
      "fa": 507,
      "Ġname": 508,
      "Ġint": 509,
      "St": 510,
      "ĠL": 511,
      "ĠE": 512,
      "Ġap": 513,
      "ĠString": 514,
      "Ġnil": 515,
      "Ġ=>": 516,
      "ord": 517,
      "Ġit": 518,
      "Ġ:=": 519,
      "rom": 520,
      "Ġ\\": 521,
      "vi": 522,
      "rr": 523,
      "Ġal": 524,
      "Ġj": 525,
      "Ġarray": 526,
      "Ġadd": 527,
      "ay": 528,
      "name": 529,
      "ain": 530,
      "ĠO": 531,
      "Ġcom": 532,
      "Ġstring": 533,
      "ĠR": 534,
      "orm": 535,
      "def": 536,
      "ve": 537,
      "os": 538,
      "ang": 539,
      "ĠĠĠĠĠĠĠĠ": 540,
      "stan": 541,
      "set": 542,
      "ow": 543,
      "alse": 544,
      "ild": 545,
      "eth": 546,
      "rent": 547,
      "Id": 548,
      "li": 549,
      "ser": 550,
      "unc": 551,
      "ource": 552,
      "----": 553,
      "ize": 554,
      "Ġerror": 555,
      "op": 556,
      "ec": 557,
      "ine": 558,
      "Type": 559,
      "ity": 560,
      "dex": 561,
      "Ġlen": 562,
      "Ġresult": 563,
      "gs": 564,
      "ĠĠĠ": 565,
      "ri": 566,
      "alid": 567,
      "rror": 568,
      "Ġvar": 569,
      "Ġen": 570,
      "Ġ|": 571,
      "ethod": 572,
      "ptions": 573,
      "Ġfin": 574,
      "ponse": 575,
      "Ġ2": 576,
      "ire": 577,
      "Ġor": 578,
      "Ġparam": 579,
      "he": 580,
      "ak": 581,
      "Ġu": 582,
      "rit": 583,
      "Ġus": 584,
      "Ġfile": 585,
      "fer": 586,
      "ĠU": 587,
      "get": 588,
      "Ġpath": 589,
      "Ġrequest": 590,
      "con": 591,
      "ount": 592,
      "stance": 593,
      "ure": 594,
      "Ġapp": 595,
      "Ġout": 596,
      "Ġ&&": 597,
      "Ġwith": 598,
      "ĠNone": 599,
      "Ġwh": 600,
      "ok": 601,
      "reate": 602,
      "Ġon": 603,
      "Ġthrow": 604,
      "ĠB": 605,
      "ies": 606,
      "Res": 607,
      "ition": 608,
      "Ġstr": 609,
      "Ġstat": 610,
      "ĠG": 611,
      "Ġid": 612,
      "Ġlog": 613,
      "cess": 614,
      "essage": 615,
      "vent": 616,
      "fo": 617,
      "Ġtype": 618,
      "Ġx": 619,
      "Value": 620,
      "act": 621,
      "Ġat": 622,
      "ace": 623,
      "ute": 624,
      "ip": 625,
      "Pro": 626,
      "ery": 627,
      "Ġfrom": 628,
      "Ġfalse": 629,
      "ory": 630,
      "==": 631,
      "Ġ@": 632,
      "vice": 633,
      "ans": 634,
      "Ġby": 635,
      "**": 636,
      "ug": 637,
      "Ġtrue": 638,
      "ator": 639,
      "Ġun": 640,
      "ust": 641,
      "Ġconfig": 642,
      "fault": 643,
      "func": 644,
      "Ġcol": 645,
      "Ġform": 646,
      "ht": 647,
      "Ġcase": 648,
      "ial": 649,
      "ument": 650,
      "ax": 651,
      "Ġfield": 652,
      "Key": 653,
      "ER": 654,
      "port": 655,
      "roup": 656,
      "ĠIn": 657,
      "gth": 658,
      "out": 659,
      "Cont": 660,
      "Ġfil": 661,
      "Ġcur": 662,
      "ress": 663,
      "En": 664,
      "trib": 665,
      "Ġlist": 666,
      "Ġclass": 667,
      "Error": 668,
      "ost": 669,
      "ĠH": 670,
      "ail": 671,
      "pert": 672,
      "ON": 673,
      "sh": 674,
      "Ġpre": 675,
      "lient": 676,
      "Ġy": 677,
      "ĠW": 678,
      "Ġend": 679,
      "uild": 680,
      "Ġmod": 681,
      "List": 682,
      "pr": 683,
      "ead": 684,
      "pro": 685,
      "Ar": 686,
      "form": 687,
      "ive": 688,
      "ast": 689,
      "ated": 690,
      "Request": 691,
      "Ġ?": 692,
      "ger": 693,
      "Set": 694,
      "Ġse": 695,
      "uf": 696,
      "ix": 697,
      "try": 698,
      "Ġsh": 699,
      "alu": 700,
      "str": 701,
      "Ġoptions": 702,
      "Ġser": 703,
      "ifi": 704,
      "pec": 705,
      "IN": 706,
      "Ġmethod": 707,
      "ener": 708,
      "Ġim": 709,
      "code": 710,
      "Ġhas": 711,
      "date": 712,
      "00": 713,
      "Ġappend": 714,
      "ly": 715,
      "Ġthat": 716,
      "og": 717,
      "url": 718,
      "Ġqu": 719,
      "Ġsub": 720,
      "Ġro": 721,
      "ersion": 722,
      "type": 723,
      "ign": 724,
      "ule": 725,
      "ange": 726,
      "Ġfinal": 727,
      "ind": 728,
      "Ġuser": 729,
      "sed": 730,
      "Ġup": 731,
      "Ġwe": 732,
      "Ġobject": 733,
      "ID": 734,
      "ĠCon": 735,
      "te": 736,
      "ill": 737,
      "Ġ%": 738,
      "lock": 739,
      "Ġformat": 740,
      "Ġdo": 741,
      "esc": 742,
      "Path": 743,
      "ber": 744,
      "Ġcall": 745,
      "alues": 746,
      "Ġ||": 747,
      "tt": 748,
      "ler": 749,
      "ight": 750,
      "Data": 751,
      "Ġcreate": 752,
      "ames": 753,
      "ink": 754,
      "umn": 755,
      "Ġnode": 756,
      "Ġ===": 757,
      "De": 758,
      "//": 759,
      "Ġstatic": 760,
      "Ġitem": 761,
      "eck": 762,
      "oint": 763,
      "ces": 764,
      "der": 765,
      "Ġresponse": 766,
      "Ġra": 767,
      "file": 768,
      "Ġlength": 769,
      "Ġindex": 770,
      "cal": 771,
      "ound": 772,
      "ens": 773,
      "To": 774,
      "Ġtry": 775,
      "ĠV": 776,
      "Ġall": 777,
      "ork": 778,
      "Ġpar": 779,
      "String": 780,
      "ml": 781,
      "Ch": 782,
      "Ġcurrent": 783,
      "ise": 784,
      "ded": 785,
      "Param": 786,
      "Ġstart": 787,
      "--------": 788,
      "AT": 789,
      "ole": 790,
      "Ġinstance": 791,
      "of": 792,
      "ream": 793,
      "ection": 794,
      "uth": 795,
      "rite": 796,
      "Class": 797,
      "tern": 798,
      "Com": 799,
      "Ġbo": 800,
      "Ġem": 801,
      "ence": 802,
      "path": 803,
      "ĠJ": 804,
      "Ġdefault": 805,
      "lement": 806,
      "ache": 807,
      "elet": 808,
      "Config": 809,
      "Ġinput": 810,
      "gument": 811,
      "File": 812,
      "Ġtime": 813,
      "ary": 814,
      "ates": 815,
      "son": 816,
      "arent": 817,
      "Ġnum": 818,
      "Ġcontext": 819,
      "ement": 820,
      "low": 821,
      "ere": 822,
      "back": 823,
      "perty": 824,
      "pty": 825,
      "arget": 826,
      "Ser": 827,
      "ected": 828,
      "ication": 829,
      "cl": 830,
      "ide": 831,
      "com": 832,
      "Ġargs": 833,
      "are": 834,
      "ask": 835,
      "ave": 836,
      "iven": 837,
      "..": 838,
      "oid": 839,
      "ĠTr": 840,
      "ove": 841,
      "av": 842,
      "Ġquery": 843,
      "ph": 844,
      "Ġmatch": 845,
      "Ġpr": 846,
      "eter": 847,
      "Ġcan": 848,
      "Ġrem": 849,
      "ccess": 850,
      "eturn": 851,
      "Ġmap": 852,
      "uct": 853,
      "Ġare": 854,
      "Ġread": 855,
      "key": 856,
      "Ġspec": 857,
      "By": 858,
      "Ġparams": 859,
      "ttp": 860,
      "At": 861,
      "RE": 862,
      "Map": 863,
      "Ġgiven": 864,
      "face": 865,
      "Ġcheck": 866,
      "irect": 867,
      "ĠRe": 868,
      "to": 869,
      "reak": 870,
      "Ġevent": 871,
      "uration": 872,
      "abel": 873,
      "tem": 874,
      "Ġ''": 875,
      "Ġoutput": 876,
      "valid": 877,
      "yn": 878,
      "yp": 879,
      "Ġurl": 880,
      "ep": 881,
      "ST": 882,
      "Ġmessage": 883,
      "Ġle": 884,
      "oin": 885,
      "Ġpl": 886,
      "tribute": 887,
      "Ġsc": 888,
      "mand": 889,
      "Ġ3": 890,
      "param": 891,
      "data": 892,
      "ession": 893,
      "====": 894,
      "Ġfore": 895,
      "read": 896,
      "terface": 897,
      "Ġbreak": 898,
      "ings": 899,
      "LE": 900,
      "cord": 901,
      "not": 902,
      "Ġwill": 903,
      "fix": 904,
      "war": 905,
      "Ġtrans": 906,
      "Node": 907,
      "ge": 908,
      "pace": 909,
      "Ġhead": 910,
      "ake": 911,
      "Ġcontain": 912,
      "Ġcontent": 913,
      "Col": 914,
      "function": 915,
      "OR": 916,
      "pos": 917,
      "Ġvoid": 918,
      "Ġstate": 919,
      "irst": 920,
      "Object": 921,
      "rol": 922,
      "Ġvalid": 923,
      "Ġvalues": 924,
      "bug": 925,
      "fin": 926,
      "Ġcl": 927,
      "Qu": 928,
      "elete": 929,
      "Ġelement": 930,
      "amp": 931,
      "ong": 932,
      "ict": 933,
      "ĠSt": 934,
      "ĠTh": 935,
      "Ġforeach": 936,
      "ject": 937,
      "Ġmodel": 938,
      "ified": 939,
      "anag": 940,
      "vel": 941,
      "lection": 942,
      "Ġmax": 943,
      "nection": 944,
      "load": 945,
      "Ġtok": 946,
      "ob": 947,
      "Ġhand": 948,
      "Ġpos": 949,
      "Time": 950,
      "Of": 951,
      "cc": 952,
      "uilder": 953,
      "ivate": 954,
      "text": 955,
      "cept": 956,
      "time": 957,
      "ME": 958,
      "ms": 959,
      "Ġreg": 960,
      "ash": 961,
      "uffer": 962,
      "Ġsize": 963,
      "place": 964,
      "Ġ++": 965,
      "Info": 966,
      "Get": 967,
      "ĠGet": 968,
      "oken": 969,
      "ant": 970,
      "ĠIf": 971,
      "__": 972,
      "ody": 973,
      "Field": 974,
      "ock": 975,
      "arsh": 976,
      "Ġtext": 977,
      "tx": 978,
      "An": 979,
      "Ġline": 980,
      "Ġcode": 981,
      "Ġparent": 982,
      "iew": 983,
      "Un": 984,
      "AR": 985,
      "Add": 986,
      "ĠList": 987,
      "fset": 988,
      "ypes": 989,
      "Return": 990,
      "arch": 991,
      "ree": 992,
      "utes": 993,
      "plate": 994,
      "own": 995,
      "atus": 996,
      "Ġdoc": 997,
      "Ġz": 998,
      "Ġuse": 999,
      "ĠSet": 1000,
      "Ġ__": 1001,
      "Ġraise": 1002,
      "oul": 1003,
      "Ġclient": 1004,
      "Ġexist": 1005,
      "ould": 1006,
      "****": 1007,
      "Ġempty": 1008,
      "odel": 1009,
      "mt": 1010,
      "Ġ+=": 1011,
      "ations": 1012,
      "AL": 1013,
      "Ġtable": 1014,
      "Ġdis": 1015,
      "Index": 1016,
      "sc": 1017,
      "Ġtarget": 1018,
      "order": 1019,
      "Ġisset": 1020,
      "ĠThe": 1021,
      "Ġtem": 1022,
      "ages": 1023,
      "Ġnext": 1024,
      "til": 1025,
      "Ġbase": 1026,
      "Ġrow": 1027,
      "press": 1028,
      "ponent": 1029,
      "olean": 1030,
      "als": 1031,
      "eters": 1032,
      "ĠObject": 1033,
      "Ġfilter": 1034,
      "erm": 1035,
      "chem": 1036,
      "sert": 1037,
      "imit": 1038,
      "quire": 1039,
      "les": 1040,
      "Ġgroup": 1041,
      "Context": 1042,
      "Ġq": 1043,
      "Ġcatch": 1044,
      "Ġwrite": 1045,
      "Element": 1046,
      "Ġtag": 1047,
      "Ġrange": 1048,
      "ss": 1049,
      "tected": 1050,
      "ert": 1051,
      "escri": 1052,
      "ĠTrue": 1053,
      "iss": 1054,
      "sg": 1055,
      "Ġcount": 1056,
      "Ġcolumn": 1057,
      "Ġresource": 1058,
      "Ġ4": 1059,
      "ard": 1060,
      "Ġop": 1061,
      "Ġhttp": 1062,
      "anager": 1063,
      "Response": 1064,
      "par": 1065,
      "eta": 1066,
      "Al": 1067,
      "ĠError": 1068,
      "ename": 1069,
      "Tr": 1070,
      "Ġpublic": 1071,
      "ann": 1072,
      "Ġne": 1073,
      "und": 1074,
      "bo": 1075,
      "Array": 1076,
      "ac": 1077,
      "tes": 1078,
      "Message": 1079,
      "string": 1080,
      "Ġobj": 1081,
      "ĉĉ": 1082,
      "ĠFalse": 1083,
      "Ġsource": 1084,
      "Code": 1085,
      "Ġrun": 1086,
      "Ġpart": 1087,
      "ilter": 1088,
      "Ġupdate": 1089,
      "SE": 1090,
      "riter": 1091,
      "pts": 1092,
      ".'": 1093,
      "yst": 1094,
      "word": 1095,
      "entity": 1096,
      "vert": 1097,
      "list": 1098,
      "UR": 1099,
      "ud": 1100,
      "opy": 1101,
      "PI": 1102,
      "Ġctx": 1103,
      "Ġfind": 1104,
      "64": 1105,
      "class": 1106,
      "verr": 1107,
      "ystem": 1108,
      "Ġparse": 1109,
      "Ġext": 1110,
      "Ġreq": 1111,
      "wargs": 1112,
      "idth": 1113,
      "Group": 1114,
      "ions": 1115,
      "abled": 1116,
      "protected": 1117,
      "red": 1118,
      "State": 1119,
      "Ġ!==": 1120,
      "ps": 1121,
      "Ġfirst": 1122,
      "Ġinfo": 1123,
      "ĠRes": 1124,
      "val": 1125,
      "array": 1126,
      "plit": 1127,
      "action": 1128,
      "heck": 1129,
      "Ġnp": 1130,
      "Ġmin": 1131,
      "value": 1132,
      "Event": 1133,
      "ference": 1134,
      "Ġreturns": 1135,
      "ther": 1136,
      "ite": 1137,
      "Query": 1138,
      "ĠX": 1139,
      "Ġos": 1140,
      "tributes": 1141,
      "Ġlast": 1142,
      "ader": 1143,
      "Hand": 1144,
      "odes": 1145,
      "ION": 1146,
      "Ġtoken": 1147,
      "perties": 1148,
      "Ġchar": 1149,
      "Ġdat": 1150,
      "Ġchild": 1151,
      "private": 1152,
      "point": 1153,
      "min": 1154,
      "ia": 1155,
      "Ġservice": 1156,
      "EN": 1157,
      "Ġno": 1158,
      "loat": 1159,
      "Ġbyte": 1160,
      "Ġcomp": 1161,
      "Or": 1162,
      "Ġjson": 1163,
      "ify": 1164,
      "ell": 1165,
      "ĠNew": 1166,
      "etad": 1167,
      "ote": 1168,
      "Ġsup": 1169,
      "Im": 1170,
      "ĠĠĠĠĠĠĠĠĠĠĠĠĠĠĠĠ": 1171,
      "Ġprint": 1172,
      "Ġ'/": 1173,
      "ternal": 1174,
      "etadata": 1175,
      "ry": 1176,
      "Ġversion": 1177,
      "arshall": 1178,
      "Service": 1179,
      "Item": 1180,
      "pect": 1181,
      "Out": 1182,
      "Ġfl": 1183,
      "ook": 1184,
      "ĠException": 1185,
      "ĠPro": 1186,
      "ren": 1187,
      "print": 1188,
      "##": 1189,
      "With": 1190,
      "Ġlocal": 1191,
      "ustom": 1192,
      "peration": 1193,
      "Ġlogger": 1194,
      "Ġ*/": 1195,
      "Ġexec": 1196,
      "verride": 1197,
      "Ġdebug": 1198,
      ".\"": 1199,
      "ick": 1200,
      "ĠAr": 1201,
      "use": 1202,
      "Ġblock": 1203,
      "Form": 1204,
      "Ġkwargs": 1205,
      "Ġremove": 1206,
      "Ġprocess": 1207,
      "Ġinit": 1208,
      "ync": 1209,
      "Input": 1210,
      "Up": 1211,
      "OD": 1212,
      "cont": 1213,
      "dir": 1214,
      "Ġgener": 1215,
      "Ġthrows": 1216,
      "ql": 1217,
      "ush": 1218,
      "Ġclo": 1219,
      "ĠThis": 1220,
      "Ġmake": 1221,
      "ft": 1222,
      "Ġab": 1223,
      "ner": 1224,
      "Size": 1225,
      "umber": 1226,
      "Client": 1227,
      "Stream": 1228,
      "ector": 1229,
      "ally": 1230,
      "ature": 1231,
      "link": 1232,
      "Ġjoin": 1233,
      "Ġmsg": 1234,
      "ized": 1235,
      "ld": 1236,
      "Ġargument": 1237,
      "annel": 1238,
      "Ġ\\\"": 1239,
      "Ġhave": 1240,
      "Ġentry": 1241,
      "ices": 1242,
      "chema": 1243,
      "Ġval": 1244,
      "Ġone": 1245,
      "vid": 1246,
      "Ġcache": 1247,
      "Not": 1248,
      "ister": 1249,
      "Ġboolean": 1250,
      "ifier": 1251,
      "work": 1252,
      "Result": 1253,
      "plication": 1254,
      "uble": 1255,
      "tings": 1256,
      "Ġnames": 1257,
      "AN": 1258,
      "led": 1259,
      "SS": 1260,
      "Ġad": 1261,
      "Ġload": 1262,
      "Builder": 1263,
      "md": 1264,
      "From": 1265,
      "rap": 1266,
      "Ġstatus": 1267,
      "CT": 1268,
      "Ġspecified": 1269,
      "ackage": 1270,
      "----------------": 1271,
      "Ġproperty": 1272,
      "ape": 1273,
      "eight": 1274,
      "ĠSer": 1275,
      "Ġinstanceof": 1276,
      "inue": 1277,
      "Ġref": 1278,
      "Ġrel": 1279,
      "itle": 1280,
      "Ġany": 1281,
      "its": 1282,
      "ply": 1283,
      "Ġtra": 1284,
      "IT": 1285,
      "ĠCom": 1286,
      "ateg": 1287,
      "ength": 1288,
      "add": 1289,
      "For": 1290,
      "mp": 1291,
      "irectory": 1292,
      "col": 1293,
      "Ap": 1294,
      "lob": 1295,
      "Ġcommand": 1296,
      "Ġmust": 1297,
      "Ġequ": 1298,
      "User": 1299,
      "Ġnumber": 1300,
      "Ġaction": 1301,
      "pend": 1302,
      "arn": 1303,
      "Util": 1304,
      "Method": 1305,
      "ope": 1306,
      "////": 1307,
      "Ġother": 1308,
      "finition": 1309,
      "rc": 1310,
      "Ġkeys": 1311,
      "ĠEx": 1312,
      "ark": 1313,
      "ugin": 1314,
      "Th": 1315,
      "Ġimage": 1316,
      "ude": 1317,
      "Manager": 1318,
      "Ġdb": 1319,
      "Options": 1320,
      "rl": 1321,
      "ĠgetS": 1322,
      "Ġwhile": 1323,
      "Ġcontinue": 1324,
      "Ġfmt": 1325,
      "Ġfunc": 1326,
      "Ġelif": 1327,
      "Ġact": 1328,
      "Ġexp": 1329,
      "log": 1330,
      "enc": 1331,
      "eg": 1332,
      "Loc": 1333,
      "Ġerrors": 1334,
      "Ġexcept": 1335,
      "instance": 1336,
      "pression": 1337,
      "Ġonly": 1338,
      "Ġsession": 1339,
      "ee": 1340,
      "ags": 1341,
      "Ġpass": 1342,
      "Log": 1343,
      "attern": 1344,
      "Token": 1345,
      "ments": 1346,
      "Ġwhen": 1347,
      "Ġcallback": 1348,
      "ret": 1349,
      "Content": 1350,
      "ĠUn": 1351,
      "Ġsw": 1352,
      "Ġorder": 1353,
      "ich": 1354,
      "user": 1355,
      "Returns": 1356,
      "Ġauth": 1357,
      "Interface": 1358,
      "ance": 1359,
      "ING": 1360,
      "Ġbuild": 1361,
      "yle": 1362,
      "Ġpage": 1363,
      "sum": 1364,
      "Ġroot": 1365,
      "Ġsend": 1366,
      "util": 1367,
      "Ġinto": 1368,
      "line": 1369,
      "Params": 1370,
      "ool": 1371,
      "Ġ...": 1372,
      "actory": 1373,
      "ĠEn": 1374,
      "Ġ`": 1375,
      "info": 1376,
      "ĠĠĠĠĠ": 1377,
      "Ġput": 1378,
      "Argument": 1379,
      "Count": 1380,
      "Ġ5": 1381,
      "ping": 1382,
      "ors": 1383,
      "Ġoffset": 1384,
      "ie": 1385,
      "Pre": 1386,
      "ĠFile": 1387,
      "Table": 1388,
      "escription": 1389,
      "Ġfiles": 1390,
      "toc": 1391,
      "Ġfound": 1392,
      "Ġsy": 1393,
      "Ġvari": 1394,
      "ou": 1395,
      "Property": 1396,
      "cur": 1397,
      "On": 1398,
      "Ġused": 1399,
      "Ġiter": 1400,
      "var": 1401,
      "quired": 1402,
      "ff": 1403,
      "'t": 1404,
      "fore": 1405,
      "tocol": 1406,
      "Ġstream": 1407,
      "Ġ\"\"": 1408,
      "Ġrecord": 1409,
      "Ġshould": 1410,
      "iled": 1411,
      "ĠType": 1412,
      "SON": 1413,
      "Head": 1414,
      "olic": 1415,
      "Ġsplit": 1416,
      "Ġbody": 1417,
      "ources": 1418,
      "tml": 1419,
      "Resource": 1420,
      "ution": 1421,
      "ccount": 1422,
      "PE": 1423,
      "fter": 1424,
      "config": 1425,
      "Ġbool": 1426,
      "Ġso": 1427,
      "Ġsec": 1428,
      "Trans": 1429,
      "Ġdelete": 1430,
      "Ġfloat": 1431,
      "========": 1432,
      "Ġlabel": 1433,
      "ond": 1434,
      "()": 1435,
      "ĠAdd": 1436,
      "itch": 1437,
      "Ġserver": 1438,
      "ĠOverride": 1439,
      "Ġwork": 1440,
      "CE": 1441,
      "Instance": 1442,
      "Ġcal": 1443,
      "Version": 1444,
      "ĠValue": 1445,
      "Ġheader": 1446,
      "Output": 1447,
      "TE": 1448,
      "iles": 1449,
      "Ġusing": 1450,
      "ension": 1451,
      "stant": 1452,
      "Ġreplace": 1453,
      "abase": 1454,
      "ueue": 1455,
      "Ġoption": 1456,
      "RO": 1457,
      "map": 1458,
      "Ġconnection": 1459,
      "dition": 1460,
      "printf": 1461,
      "ual": 1462,
      "As": 1463,
      "Ġdel": 1464,
      "ines": 1465,
      "Ġfields": 1466,
      "size": 1467,
      "ish": 1468,
      "plet": 1469,
      "TT": 1470,
      "formation": 1471,
      "Ġparameters": 1472,
      "Ġback": 1473,
      "rame": 1474,
      "ĠK": 1475,
      "Ġview": 1476,
      "Call": 1477,
      "Ġcontainer": 1478,
      "Ġhost": 1479,
      "ification": 1480,
      "ous": 1481,
      "Status": 1482,
      "raph": 1483,
      "pre": 1484,
      "ript": 1485,
      "ists": 1486,
      "Ġconn": 1487,
      "Model": 1488,
      "Url": 1489,
      "inal": 1490,
      "ĠAPI": 1491,
      "Ġwhich": 1492,
      "Ġ--": 1493,
      "Column": 1494,
      "ML": 1495,
      "Ġbut": 1496,
      "vider": 1497,
      "older": 1498,
      "Attribute": 1499,
      "Ġopts": 1500,
      "Ġarg": 1501,
      "LO": 1502,
      "Handler": 1503,
      "Lo": 1504,
      "ĠDe": 1505,
      "UL": 1506,
      "ific": 1507,
      "Ġthen": 1508,
      "Ġdate": 1509,
      "ĠArray": 1510,
      "ample": 1511,
      "ric": 1512,
      "ules": 1513,
      "Em": 1514,
      "Ġloc": 1515,
      "Ġitems": 1516,
      "Ġeach": 1517,
      "field": 1518,
      "Ġcre": 1519,
      "Ġexception": 1520,
      "ainer": 1521,
      "Ġentity": 1522,
      "ible": 1523,
      "Ġsort": 1524,
      "Ġlong": 1525,
      "Enabled": 1526,
      "ov": 1527,
      "Text": 1528,
      "Ġok": 1529,
      "omain": 1530,
      "orage": 1531,
      "}\"": 1532,
      "rib": 1533,
      "Ġper": 1534,
      "ative": 1535,
      "Ġapi": 1536,
      "Var": 1537,
      "ables": 1538,
      "roller": 1539,
      "ait": 1540,
      "Sc": 1541,
      "Ġtemplate": 1542,
      "Ġcomm": 1543,
      "Ġfilename": 1544,
      "Ġ>=": 1545,
      "=\"": 1546,
      "Ġind": 1547,
      "Ġ\"\\": 1548,
      "Ġisinstance": 1549,
      "Ġenv": 1550,
      "Ġass": 1551,
      "Ġdoes": 1552,
      "Par": 1553,
      "Ġinter": 1554,
      "Sh": 1555,
      "Valid": 1556,
      "Names": 1557,
      "ĠCol": 1558,
      "cod": 1559,
      "Ġinterface": 1560,
      "az": 1561,
      "Ġtask": 1562,
      "angu": 1563,
      "Check": 1564,
      "Ġresol": 1565,
      "Ġattribute": 1566,
      "ĠRequest": 1567,
      "otal": 1568,
      "Ġparameter": 1569,
      "Ġdest": 1570,
      "clude": 1571,
      "etwork": 1572,
      "Ġsign": 1573,
      "reg": 1574,
      "tract": 1575,
      "dict": 1576,
      "Ġdir": 1577,
      "32": 1578,
      "ause": 1579,
      "ont": 1580,
      "resent": 1581,
      "lect": 1582,
      "erge": 1583,
      "ET": 1584,
      "Str": 1585,
      "Filter": 1586,
      "Ġ.=": 1587,
      "ization": 1588,
      "version": 1589,
      "olicy": 1590,
      "etric": 1591,
      "Ġold": 1592,
      "etch": 1593,
      "io": 1594,
      "All": 1595,
      "entifier": 1596,
      "Ġsu": 1597,
      "aint": 1598,
      "ĠID": 1599,
      "gn": 1600,
      "play": 1601,
      "elper": 1602,
      "Ġpost": 1603,
      "Ġattr": 1604,
      "Ġmodule": 1605,
      "Ġequals": 1606,
      "Ġheaders": 1607,
      "Ġneed": 1608,
      "Tra": 1609,
      "Ġcopy": 1610,
      "01": 1611,
      "object": 1612,
      "Ġbuffer": 1613,
      "her": 1614,
      "index": 1615,
      "Pos": 1616,
      "Reg": 1617,
      "ĠUR": 1618,
      "Ġcle": 1619,
      "Ġswitch": 1620,
      "Dir": 1621,
      "Entry": 1622,
      "Ġsearch": 1623,
      "ĠY": 1624,
      "Ġwhere": 1625,
      "Date": 1626,
      "mb": 1627,
      "ntity": 1628,
      "ava": 1629,
      "Format": 1630,
      "po": 1631,
      "oot": 1632,
      "Ġprefix": 1633,
      "Ġpoint": 1634,
      "ĠMap": 1635,
      "error": 1636,
      "by": 1637,
      "End": 1638,
      "DE": 1639,
      "Ġhandle": 1640,
      "etail": 1641,
      "AME": 1642,
      "over": 1643,
      "********": 1644,
      "Ġdouble": 1645,
      "Ġimp": 1646,
      "Ġorig": 1647,
      "Ġ<=": 1648,
      "Cache": 1649,
      "uri": 1650,
      "Ġhash": 1651,
      "Ġdef": 1652,
      "FI": 1653,
      "Ġren": 1654,
      "group": 1655,
      "Ġfe": 1656,
      "apt": 1657,
      "Ġtim": 1658,
      "ĠClass": 1659,
      "ĠWe": 1660,
      "Ġnon": 1661,
      "Parameter": 1662,
      "Ġmem": 1663,
      "Ġconfiguration": 1664,
      "ĠIO": 1665,
      "Ġ6": 1666,
      "iver": 1667,
      "Ġdocument": 1668,
      "Dis": 1669,
      "Line": 1670,
      "Ġ>>": 1671,
      "ready": 1672,
      "old": 1673,
      "Ġoperation": 1674,
      "Ġed": 1675,
      "Sub": 1676,
      "Ġattributes": 1677,
      "Ġsets": 1678,
      "Ġcustom": 1679,
      "ĠCh": 1680,
      "Ġbuf": 1681,
      "Le": 1682,
      "unk": 1683,
      "Create": 1684,
      "Start": 1685,
      "Ġresults": 1686,
      "ormal": 1687,
      "cket": 1688,
      "ĠgetP": 1689,
      "Ġaw": 1690,
      "rid": 1691,
      "Ġlink": 1692,
      "UT": 1693,
      "Ġsp": 1694,
      "\\\\": 1695,
      "Ġopen": 1696,
      "struct": 1697,
      "xy": 1698,
      "Ġallow": 1699,
      "indow": 1700,
      "anguage": 1701,
      "Int": 1702,
      "Ġwas": 1703,
      "Ġexists": 1704,
      "Ġsrc": 1705,
      "ical": 1706,
      "Ġstore": 1707,
      "ailed": 1708,
      "Ġutil": 1709,
      "ialize": 1710,
      "mod": 1711,
      "Ġav": 1712,
      "}'": 1713,
      "ingle": 1714,
      "Ġtc": 1715,
      "ĠAp": 1716,
      "sub": 1717,
      "Ġresp": 1718,
      "Ġjob": 1719,
      "Ġrule": 1720,
      "Ġac": 1721,
      "uster": 1722,
      "ĠgetName": 1723,
      "posit": 1724,
      "Ġ8": 1725,
      "item": 1726,
      "af": 1727,
      "Ġ10": 1728,
      "Ġhtml": 1729,
      "Auth": 1730,
      "Ġbytes": 1731,
      "gnore": 1732,
      "Factory": 1733,
      "ref": 1734,
      "ination": 1735,
      "Ġ\\\\": 1736,
      "Ġag": 1737,
      "YPE": 1738,
      "Mod": 1739,
      "Ġax": 1740,
      "OL": 1741,
      "ome": 1742,
      "Ġrender": 1743,
      "Ġregister": 1744,
      "content": 1745,
      "Ġclose": 1746,
      "attr": 1747,
      "Ġ/*": 1748,
      "Pl": 1749,
      "Configuration": 1750,
      "ailable": 1751,
      "sp": 1752,
      "essages": 1753,
      "Ġposition": 1754,
      "Ġred": 1755,
      "Ġport": 1756,
      "</": 1757,
      "Ġaddress": 1758,
      "Doc": 1759,
      "Ġtop": 1760,
      "Se": 1761,
      "ĠtoString": 1762,
      "Child": 1763,
      "rop": 1764,
      "Ġconvert": 1765,
      "ik": 1766,
      "View": 1767,
      "Block": 1768,
      ");": 1769,
      "ĠName": 1770,
      "Ġprotocol": 1771,
      "ĠContext": 1772,
      "ayer": 1773,
      "TTP": 1774,
      "Ġarguments": 1775,
      "ating": 1776,
      "ATE": 1777,
      "Ġmult": 1778,
      "Ġinformation": 1779,
      "plic": 1780,
      "AG": 1781,
      "Length": 1782,
      "Ġ/**": 1783,
      "NT": 1784,
      "URL": 1785,
      "sel": 1786,
      "ting": 1787,
      "ĠCreate": 1788,
      "pected": 1789,
      "Ġproperties": 1790,
      "Ġme": 1791,
      "CH": 1792,
      "cre": 1793,
      "Ġcomponent": 1794,
      "ias": 1795,
      "ĠJSON": 1796,
      "Ġcmd": 1797,
      "ported": 1798,
      "Dec": 1799,
      "Ġlimit": 1800,
      "Ġlevel": 1801,
      "ple": 1802,
      "Action": 1803,
      "Ġinst": 1804,
      "Tag": 1805,
      "ĠLO": 1806,
      "'s": 1807,
      "exists": 1808,
      "ucket": 1809,
      "let": 1810,
      "itor": 1811,
      "ice": 1812,
      "teger": 1813,
      "we": 1814,
      "Ġassert": 1815,
      "ĠCont": 1816,
      "Ġpush": 1817,
      "Ġalready": 1818,
      "notation": 1819,
      "lobal": 1820,
      "UE": 1821,
      "estamp": 1822,
      "ures": 1823,
      "izer": 1824,
      "Ġco": 1825,
      "air": 1826,
      "ĠLog": 1827,
      "duct": 1828,
      "loc": 1829,
      "Source": 1830,
      "Ġraw": 1831,
      "Ġ()": 1832,
      "Ġmarshall": 1833,
      "kip": 1834,
      "Ġwidth": 1835,
      "Ġexecute": 1836,
      "Tem": 1837,
      "Ġhandler": 1838,
      "Ġafter": 1839,
      "ermiss": 1840,
      "Component": 1841,
      "Ġtest": 1842,
      "Ġpop": 1843,
      "Ġph": 1844,
      "ped": 1845,
      "Ġyou": 1846,
      "Ġsql": 1847,
      "pare": 1848,
      "Ġcollection": 1849,
      "ĠĠĠĠĠĠĠĠĠ": 1850,
      "Marshall": 1851,
      "Definition": 1852,
      "Ġtmp": 1853,
      "Number": 1854,
      "pository": 1855,
      "PT": 1856,
      "que": 1857,
      "Ġcor": 1858,
      "ayload": 1859,
      "ĠIOException": 1860,
      "ocket": 1861,
      "Access": 1862,
      "Gener": 1863,
      "Header": 1864,
      "Ġbefore": 1865,
      "Ġconst": 1866,
      "Ġdirectory": 1867,
      "Default": 1868,
      "cale": 1869,
      ">'": 1870,
      "Ad": 1871,
      "OM": 1872,
      "idd": 1873,
      "Ġprovi": 1874,
      "Ġĉĉ": 1875,
      "And": 1876,
      "Sel": 1877,
      "ArgumentException": 1878,
      "Ġover": 1879,
      "AD": 1880,
      "ategory": 1881,
      "oci": 1882,
      "count": 1883,
      "for": 1884,
      "Ġmatches": 1885,
      "default": 1886,
      "Address": 1887,
      "way": 1888,
      "ility": 1889,
      "quence": 1890,
      "Update": 1891,
      "Buffer": 1892,
      "check": 1893,
      "Ġwarn": 1894,
      "Option": 1895,
      "max": 1896,
      "len": 1897,
      "Ġmore": 1898,
      "raw": 1899,
      "ys": 1900,
      "Ġdif": 1901,
      "ribe": 1902,
      "ĠConfig": 1903,
      "Ġchannel": 1904,
      "Exec": 1905,
      "Ġtemp": 1906,
      "pen": 1907,
      "New": 1908,
      "Ġplugin": 1909,
      "ĠData": 1910,
      "uid": 1911,
      "gin": 1912,
      "iron": 1913,
      "Ġcontains": 1914,
      "Ġthere": 1915,
      "match": 1916,
      "ton": 1917,
      "with": 1918,
      "Be": 1919,
      "ined": 1920,
      "Empty": 1921,
      "ĠAn": 1922,
      "Ġsave": 1923,
      "Ġver": 1924,
      "label": 1925,
      "ĠErr": 1926,
      "ĠgetC": 1927,
      "undle": 1928,
      "ĠKey": 1929,
      "Ġimport": 1930,
      "Ġrequired": 1931,
      "rix": 1932,
      "Rem": 1933,
      "cul": 1934,
      "leg": 1935,
      "Ġpattern": 1936,
      "start": 1937,
      "mit": 1938,
      "ĠRun": 1939,
      "ram": 1940,
      "Invalid": 1941,
      "atrix": 1942,
      "Entity": 1943,
      "auth": 1944,
      "view": 1945,
      "Ġroute": 1946,
      "Ġsettings": 1947,
      "ĠUp": 1948,
      "ron": 1949,
      "Ġrec": 1950,
      "ision": 1951,
      "Connection": 1952,
      "Ġtypes": 1953,
      "Ġvalidate": 1954,
      "resh": 1955,
      "ĠService": 1956,
      "Ref": 1957,
      "Ġstruct": 1958,
      "Ġcons": 1959,
      "Ġgo": 1960,
      "ities": 1961,
      "ĠInvalid": 1962,
      "Ġschema": 1963,
      "Page": 1964,
      "Ġmode": 1965,
      "db": 1966,
      "Ġsame": 1967,
      "args": 1968,
      "base": 1969,
      "####": 1970,
      "Rel": 1971,
      "Values": 1972,
      "names": 1973,
      "OT": 1974,
      "ĠErrorf": 1975,
      "ĠURL": 1976,
      "json": 1977,
      "head": 1978,
      "ient": 1979,
      "edia": 1980,
      "Ġnamespace": 1981,
      "Ġmetadata": 1982,
      "Ġfull": 1983,
      "Ġproject": 1984,
      "NAME": 1985,
      "The": 1986,
      "etails": 1987,
      "Part": 1988,
      "Utils": 1989,
      "Spec": 1990,
      "call": 1991,
      "elp": 1992,
      "Ġbind": 1993,
      "Read": 1994,
      "Ġ'%": 1995,
      "Cre": 1996,
      "Run": 1997,
      "ging": 1998,
      "Row": 1999,
      "ĠReturn": 2000,
      "ential": 2001,
      "Ġleft": 2002,
      "Ġuri": 2003,
      "ached": 2004,
      "Ġsprintf": 2005,
      "Ġaccess": 2006,
      "tries": 2007,
      "lice": 2008,
      "Cl": 2009,
      "params": 2010,
      "null": 2011,
      "ayout": 2012,
      "legal": 2013,
      "coding": 2014,
      "rypt": 2015,
      "Types": 2016,
      "Ġencode": 2017,
      "ĠLOG": 2018,
      "state": 2019,
      "Ġsl": 2020,
      "Ġtimeout": 2021,
      "htt": 2022,
      "Ġ'/'": 2023,
      "QL": 2024,
      "Ġxml": 2025,
      "Ġmay": 2026,
      "Ġselect": 2027,
      "Ġcls": 2028,
      "ĠNode": 2029,
      "ĠDE": 2030,
      "igh": 2031,
      "straint": 2032,
      "tra": 2033,
      "lode": 2034,
      "llegal": 2035,
      "Ġcolor": 2036,
      "Ġnow": 2037,
      "bs": 2038,
      "method": 2039,
      "Image": 2040,
      "Null": 2041,
      "Local": 2042,
      "Found": 2043,
      "Ġstd": 2044,
      "ater": 2045,
      "FA": 2046,
      "If": 2047,
      "so": 2048,
      "ched": 2049,
      "Pr": 2050,
      "wer": 2051,
      "imple": 2052,
      "LI": 2053,
      "anges": 2054,
      "sure": 2055,
      "ED": 2056,
      "Ġinvalid": 2057,
      "Marshaller": 2058,
      "Ġaut": 2059,
      "Match": 2060,
      "lose": 2061,
      "Ġexisting": 2062,
      "Ġdatabase": 2063,
      "Ġstrings": 2064,
      "Ġdict": 2065,
      "ume": 2066,
      "Ġidx": 2067,
      "ĠValueError": 2068,
      "sl": 2069,
      "Ġ'_": 2070,
      "Ġrep": 2071,
      "Ġheight": 2072,
      "ĠCheck": 2073,
      "py": 2074,
      "ency": 2075,
      "Ġword": 2076,
      "Ġtitle": 2077,
      "Ġtotal": 2078,
      "replace": 2079,
      "from": 2080,
      "Server": 2081,
      "Ġparser": 2082,
      "Function": 2083,
      "vious": 2084,
      "ower": 2085,
      "escript": 2086,
      "stants": 2087,
      "result": 2088,
      "Ġbuilder": 2089,
      "AB": 2090,
      "ear": 2091,
      "ied": 2092,
      "ning": 2093,
      "vices": 2094,
      "nown": 2095,
      "ounter": 2096,
      "Ġits": 2097,
      "Link": 2098,
      "Ġelseif": 2099,
      "river": 2100,
      "inary": 2101,
      "ics": 2102,
      "Ġgenerate": 2103,
      "enu": 2104,
      "////////": 2105,
      "Ġreturned": 2106,
      "num": 2107,
      "ĠgetM": 2108,
      "Ġdec": 2109,
      "Ġstack": 2110,
      "andom": 2111,
      "Ġprovided": 2112,
      "Ġev": 2113,
      "Ġreference": 2114,
      "Record": 2115,
      "options": 2116,
      "Ġlocation": 2117,
      "Ġbeen": 2118,
      "Ġ'\"": 2119,
      "ĠIN": 2120,
      "table": 2121,
      "->": 2122,
      "SER": 2123,
      "UN": 2124,
      "Ġam": 2125,
      "atic": 2126,
      "ugh": 2127,
      "istry": 2128,
      "mbol": 2129,
      "Ġ100": 2130,
      "cle": 2131,
      "Ġstop": 2132,
      "Ġextend": 2133,
      "Next": 2134,
      "no": 2135,
      "ift": 2136,
      "fg": 2137,
      "12": 2138,
      "format": 2139,
      "Ġparts": 2140,
      "ĠIllegal": 2141,
      "Ġsum": 2142,
      "cs": 2143,
      "ĠInteger": 2144,
      "Ġright": 2145,
      "Ġscope": 2146,
      "box": 2147,
      "Point": 2148,
      "ĠCms": 2149,
      "message": 2150,
      "Ġtree": 2151,
      "onth": 2152,
      "Ġopt": 2153,
      "Ġstyle": 2154,
      "ved": 2155,
      "Char": 2156,
      "Session": 2157,
      "Ġfetch": 2158,
      "node": 2159,
      "Bytes": 2160,
      "ique": 2161,
      "Ġtransl": 2162,
      "10": 2163,
      "ĠSee": 2164,
      "iter": 2165,
      "Ġupd": 2166,
      "ĠDate": 2167,
      "Ġcolumns": 2168,
      "issing": 2169,
      "Container": 2170,
      "Base": 2171,
      "Ġinitial": 2172,
      "Per": 2173,
      "Task": 2174,
      "Rule": 2175,
      "Ġlock": 2176,
      "ĠUser": 2177,
      "defined": 2178,
      "Ġshape": 2179,
      "df": 2180,
      "Ġpackage": 2181,
      "Ġthem": 2182,
      "cel": 2183,
      "Ġobjects": 2184,
      "assed": 2185,
      "Ġelements": 2186,
      "',": 2187,
      "filter": 2188,
      "Command": 2189,
      "Ġvariable": 2190,
      "Ġmeta": 2191,
      "AM": 2192,
      "Ġwrap": 2193,
      "Sec": 2194,
      "Ġconf": 2195,
      "be": 2196,
      "ĠTra": 2197,
      "Ġinv": 2198,
      "Ġnodes": 2199,
      "ĠCollection": 2200,
      "Ġpassword": 2201,
      "Ġsingle": 2202,
      "AP": 2203,
      "VER": 2204,
      "Ġsecond": 2205,
      "Ġ\"/": 2206,
      "://": 2207,
      "idget": 2208,
      "Ġtrim": 2209,
      "bers": 2210,
      "this": 2211,
      "Ġnormal": 2212,
      "Ġ\"%": 2213,
      "iable": 2214,
      "escribe": 2215,
      "Ġsuccess": 2216,
      "Ġdefin": 2217,
      "='": 2218,
      "aw": 2219,
      "Ġdefer": 2220,
      "ĠIm": 2221,
      "ENT": 2222,
      "Listener": 2223,
      "Label": 2224,
      ")\"": 2225,
      "AC": 2226,
      "Process": 2227,
      "iction": 2228,
      "Ġtx": 2229,
      "Ġapply": 2230,
      "Ġlet": 2231,
      "ids": 2232,
      "store": 2233,
      "assword": 2234,
      "Ġstep": 2235,
      "Ġaccount": 2236,
      "arshal": 2237,
      "ĠQ": 2238,
      "ĠHTTP": 2239,
      "Ġsuper": 2240,
      "uture": 2241,
      "fl": 2242,
      "Ġinsert": 2243,
      "Prefix": 2244,
      "Ġresolve": 2245,
      "FF": 2246,
      "EL": 2247,
      "CON": 2248,
      "Provider": 2249,
      "Body": 2250,
      "dis": 2251,
      "Ġjava": 2252,
      "ten": 2253,
      "Ġuint": 2254,
      "Ġoper": 2255,
      "ĠDo": 2256,
      "Store": 2257,
      "ared": 2258,
      "RI": 2259,
      "round": 2260,
      "Package": 2261,
      "ĠAl": 2262,
      "escriptor": 2263,
      "ironment": 2264,
      "Ġ',": 2265,
      "bser": 2266,
      "Ġmark": 2267,
      "uple": 2268,
      "Ġcondition": 2269,
      "Ġprop": 2270,
      "query": 2271,
      "patch": 2272,
      "any": 2273,
      "ULT": 2274,
      "Ġpassed": 2275,
      "Helper": 2276,
      "Metadata": 2277,
      "Job": 2278,
      "No": 2279,
      "ĠPar": 2280,
      "Ġvis": 2281,
      "Ġoriginal": 2282,
      "Template": 2283,
      "model": 2284,
      "ĠZ": 2285,
      "ĠField": 2286,
      "Ġaws": 2287,
      "ĠNot": 2288,
      "Writer": 2289,
      "DB": 2290,
      "Ġseg": 2291,
      "Ġ'{": 2292,
      "request": 2293,
      "EX": 2294,
      "Ġfn": 2295,
      "Ġ<<": 2296,
      "Properties": 2297,
      "Ġpack": 2298,
      "Ġpreg": 2299,
      "Expression": 2300,
      "ĠPr": 2301,
      "Ġcomplet": 2302,
      "ertific": 2303,
      "ank": 2304,
      "Ġignore": 2305,
      "ĠResponse": 2306,
      "aces": 2307,
      "Ġalias": 2308,
      "Mode": 2309,
      "Hash": 2310,
      "ODO": 2311,
      "SC": 2312,
      "16": 2313,
      "Fields": 2314,
      "ĠUpdate": 2315,
      "token": 2316,
      "olume": 2317,
      "igger": 2318,
      "Ġavailable": 2319,
      "SI": 2320,
      "Ġfail": 2321,
      "nap": 2322,
      "ats": 2323,
      "Ġlook": 2324,
      "Ġchildren": 2325,
      "Target": 2326,
      "status": 2327,
      "enter": 2328,
      "gress": 2329,
      "anged": 2330,
      "redential": 2331,
      "ĠSystem": 2332,
      "Ġhttps": 2333,
      "ensions": 2334,
      "Offset": 2335,
      "urity": 2336,
      "Ġ'\\": 2337,
      "trans": 2338,
      "Ġtw": 2339,
      "Fl": 2340,
      "Ġinclude": 2341,
      "Ġtags": 2342,
      "ĠgetD": 2343,
      "ted": 2344,
      "ender": 2345,
      "Ġdevice": 2346,
      "ĠST": 2347,
      "Ġimplement": 2348,
      "hand": 2349,
      "ĠMessage": 2350,
      "ta": 2351,
      "types": 2352,
      "Ġthan": 2353,
      "files": 2354,
      "Level": 2355,
      "IND": 2356,
      "ely": 2357,
      "Ġorg": 2358,
      "Ġip": 2359,
      "Iter": 2360,
      "ĠMath": 2361,
      "Ġlines": 2362,
      "Ġgot": 2363,
      "ĠValid": 2364,
      "Ġpk": 2365,
      "ĠgetValue": 2366,
      "Ġcharact": 2367,
      "Ġ'<": 2368,
      "ences": 2369,
      "ln": 2370,
      "Ġ7": 2371,
      "values": 2372,
      "Ġsubstr": 2373,
      "etime": 2374,
      "Root": 2375,
      "Ġbegin": 2376,
      "ds": 2377,
      "down": 2378,
      "Ġdefinition": 2379,
      "ĠAt": 2380,
      "ĠgetMessage": 2381,
      "ĠprotocolMarshaller": 2382,
      "ĠDB": 2383,
      "Width": 2384,
      "Ġpayload": 2385,
      "iod": 2386,
      "ns": 2387,
      "gine": 2388,
      "Ġqueue": 2389,
      "alt": 2390,
      "imary": 2391,
      "ollow": 2392,
      "Ġsb": 2393,
      "ublish": 2394,
      "Ġpy": 2395,
      "Keys": 2396,
      "pth": 2397,
      "ĠĠĠĠĠĠĠĠĠĠĠĠ": 2398,
      "TYPE": 2399,
      "Ġ'-": 2400,
      "ories": 2401,
      "Parameters": 2402,
      "Ġatt": 2403,
      "Reference": 2404,
      "Ġshow": 2405,
      "Ġrepresent": 2406,
      "ĠArrayList": 2407,
      "Cur": 2408,
      "ox": 2409,
      "ince": 2410,
      "Ġdist": 2411,
      "\\\"": 2412,
      "ets": 2413,
      "da": 2414,
      "shot": 2415,
      "Ġprevious": 2416,
      "Ġabs": 2417,
      "Ġ'.": 2418,
      "PO": 2419,
      "ses": 2420,
      "Work": 2421,
      "imum": 2422,
      "ged": 2423,
      "Ġclear": 2424,
      "api": 2425,
      "flow": 2426,
      "Ġexit": 2427,
      "Callback": 2428,
      "================": 2429,
      "Ġtokens": 2430,
      "cy": 2431,
      "rior": 2432,
      "page": 2433,
      "doc": 2434,
      "aded": 2435,
      "pc": 2436,
      "ether": 2437,
      "ĠRE": 2438,
      "ero": 2439,
      "aster": 2440,
      "Ġchunk": 2441,
      "Ġsection": 2442,
      "--------------------------------": 2443,
      "iple": 2444,
      "ĠClient": 2445,
      "Ġenc": 2446,
      "Ġdepend": 2447,
      "Order": 2448,
      "Case": 2449,
      "ran": 2450,
      "atabase": 2451,
      "keys": 2452,
      "ier": 2453,
      "Ġarr": 2454,
      "TH": 2455,
      "ling": 2456,
      "ĠFor": 2457,
      "rag": 2458,
      "Act": 2459,
      "wise": 2460,
      "Ġdomain": 2461,
      "ersist": 2462,
      "return": 2463,
      "Ġdim": 2464,
      "Inter": 2465,
      "loy": 2466,
      "sor": 2467,
      "Ġ9": 2468,
      "length": 2469,
      "sing": 2470,
      "Tree": 2471,
      "context": 2472,
      "/'": 2473,
      "ĠHash": 2474,
      "ampl": 2475,
      "verse": 2476,
      "Ġdescription": 2477,
      "Ġrole": 2478,
      "ĠSend": 2479,
      "ointer": 2480,
      "Ġterm": 2481,
      "Ext": 2482,
      "Ġnetwork": 2483,
      "Ġcell": 2484,
      "headers": 2485,
      "ade": 2486,
      "apter": 2487,
      "Ġskip": 2488,
      "Ġbound": 2489,
      "ular": 2490,
      "Ġ\"'": 2491,
      "Ġtransaction": 2492,
      "cache": 2493,
      "Ġendpoint": 2494,
      "Ġdecode": 2495,
      "vers": 2496,
      ":'": 2497,
      "Attributes": 2498,
      "11": 2499,
      "HP": 2500,
      "AX": 2501,
      "Ġstorage": 2502,
      "This": 2503,
      "ĠDelete": 2504,
      "http": 2505,
      ")'": 2506,
      "pute": 2507,
      "lease": 2508,
      "ĠRuntime": 2509,
      "Ġtransform": 2510,
      "Ġbased": 2511,
      "Ġbot": 2512,
      "afe": 2513,
      "Reader": 2514,
      "ynch": 2515,
      "Ġlat": 2516,
      "nect": 2517,
      "Ġwrit": 2518,
      "Document": 2519,
      "Is": 2520,
      "Ġapplication": 2521,
      "Ġcreated": 2522,
      "Ġow": 2523,
      "Err": 2524,
      "ĠBy": 2525,
      "ĠReg": 2526,
      "Ġio": 2527,
      "parator": 2528,
      "Ġwait": 2529,
      "riteria": 2530,
      "Lock": 2531,
      "Collection": 2532,
      "Ġrelation": 2533,
      "LA": 2534,
      "Ġfailed": 2535,
      "amb": 2536,
      "Ġjust": 2537,
      "ookie": 2538,
      "55": 2539,
      "ma": 2540,
      "ĠHttp": 2541,
      "Ġstarts": 2542,
      "ertificate": 2543,
      "du": 2544,
      "Ġwant": 2545,
      "Ġalso": 2546,
      "ike": 2547,
      "Ġday": 2548,
      "Ġchange": 2549,
      "ilename": 2550,
      "napshot": 2551,
      "Ġglobal": 2552,
      "Ġdefined": 2553,
      "azon": 2554,
      "Position": 2555,
      "fs": 2556,
      "API": 2557,
      "ember": 2558,
      "etry": 2559,
      "TER": 2560,
      "Ġlib": 2561,
      "Ġdisplay": 2562,
      "Load": 2563,
      "host": 2564,
      "DI": 2565,
      "Ġcalled": 2566,
      "process": 2567,
      "Can": 2568,
      "Ġstrip": 2569,
      "Init": 2570,
      "oute": 2571,
      "Ġfeature": 2572,
      "Ġlocale": 2573,
      "cat": 2574,
      "event": 2575,
      "Ġassoci": 2576,
      "Ag": 2577,
      "Num": 2578,
      "IP": 2579,
      "Ġbas": 2580,
      "Ġbatch": 2581,
      "Policy": 2582,
      "Ġrequire": 2583,
      "ose": 2584,
      "ĠIs": 2585,
      "mon": 2586,
      "ĠEvent": 2587,
      "Ġdown": 2588,
      "Ġsys": 2589,
      "Ġmethods": 2590,
      "ĠResource": 2591,
      "ĠSub": 2592,
      "Ġ12": 2593,
      "Host": 2594,
      "Ġrows": 2595,
      "Ġcontroller": 2596,
      "ĠIt": 2597,
      "ĠWrite": 2598,
      "cho": 2599,
      "ynchron": 2600,
      "oolean": 2601,
      "EY": 2602,
      "obj": 2603,
      "ĠTrans": 2604,
      "Ġreport": 2605,
      "Ġtrace": 2606,
      "rect": 2607,
      "Ġextract": 2608,
      "uffix": 2609,
      "Ass": 2610,
      "Ġ'.'": 2611,
      "Ġlower": 2612,
      "Delete": 2613,
      "scri": 2614,
      "Args": 2615,
      "ux": 2616,
      "Port": 2617,
      "Ġ{}": 2618,
      "Ġsystem": 2619,
      "html": 2620,
      "Ġsee": 2621,
      "Func": 2622,
      "Ġframe": 2623,
      "Stack": 2624,
      "client": 2625,
      "write": 2626,
      "IL": 2627,
      "Settings": 2628,
      "block": 2629,
      "input": 2630,
      "ĠNo": 2631,
      "Ġremote": 2632,
      "Ġwriter": 2633,
      "ĠgetId": 2634,
      "ermission": 2635,
      "FAULT": 2636,
      "Ġrece": 2637,
      "ĠSh": 2638,
      "stances": 2639,
      "create": 2640,
      "Ġevents": 2641,
      "rough": 2642,
      "18": 2643,
      "utton": 2644,
      "ranch": 2645,
      "Ġunset": 2646,
      "ĠTime": 2647,
      "uch": 2648,
      "title": 2649,
      "Ġthread": 2650,
      "WS": 2651,
      "Ġexpression": 2652,
      "Ġlanguage": 2653,
      "Ġaxis": 2654,
      "Range": 2655,
      "less": 2656,
      "Ġdirect": 2657,
      "ĠclassName": 2658,
      "icate": 2659,
      "ĠTODO": 2660,
      "eep": 2661,
      "Ġfs": 2662,
      "ĠRem": 2663,
      "SH": 2664,
      "Ġexpected": 2665,
      "ĠPath": 2666,
      "Ġgraph": 2667,
      "('": 2668,
      "VAL": 2669,
      "parse": 2670,
      "Ed": 2671,
      "ĠUse": 2672,
      "Ids": 2673,
      "Ġhere": 2674,
      "Obj": 2675,
      "mary": 2676,
      "ĠTrace": 2677,
      "Parser": 2678,
      "ins": 2679,
      "part": 2680,
      "run": 2681,
      "etrics": 2682,
      "Ġassign": 2683,
      "php": 2684,
      "ĠStatus": 2685,
      "Height": 2686,
      "Ġchain": 2687,
      "Ġencoding": 2688,
      "ATION": 2689,
      "Ġsome": 2690,
      "Ġmerge": 2691,
      "tag": 2692,
      "roll": 2693,
      "Timeout": 2694,
      "Ġactive": 2695,
      "number": 2696,
      "Files": 2697,
      "ĠOption": 2698,
      "Ġemail": 2699,
      "cause": 2700,
      "Ġbet": 2701,
      "merge": 2702,
      "Ġresources": 2703,
      "new": 2704,
      "ULL": 2705,
      "ful": 2706,
      "Ġparsed": 2707,
      "BIND": 2708,
      "ĠisEmpty": 2709,
      "Ġextension": 2710,
      "Back": 2711,
      "ODE": 2712,
      "Ġinternal": 2713,
      "irt": 2714,
      "Ġreset": 2715,
      "Ġtypeof": 2716,
      "ween": 2717,
      "Ġusername": 2718,
      "Ġaddition": 2719,
      "ĠRead": 2720,
      "Ġclean": 2721,
      "last": 2722,
      "Convert": 2723,
      "Ġbecause": 2724,
      "update": 2725,
      "ware": 2726,
      "Ġdon": 2727,
      "Ġscript": 2728,
      "Creates": 2729,
      "image": 2730,
      "Ġdone": 2731,
      "structor": 2732,
      "99": 2733,
      "Ġserial": 2734,
      "Location": 2735,
      "sible": 2736,
      "ambda": 2737,
      "init": 2738,
      "BINDING": 2739,
      "response": 2740,
      "ĠInput": 2741,
      "Ġwindow": 2742,
      "Ġmessages": 2743,
      "Ġrandom": 2744,
      "Ġcoord": 2745,
      "{$": 2746,
      "Max": 2747,
      "ĠForm": 2748,
      "exp": 2749,
      "cer": 2750,
      "****************": 2751,
      "gra": 2752,
      "ason": 2753,
      "ĠIllegalArgumentException": 2754,
      "ĠOn": 2755,
      "Ġidentifier": 2756,
      "igr": 2757,
      "net": 2758,
      "aset": 2759,
      "loud": 2760,
      "inter": 2761,
      "pha": 2762,
      "Ġins": 2763,
      "rem": 2764,
      "erce": 2765,
      "Sign": 2766,
      "post": 2767,
      "NotFound": 2768,
      "irection": 2769,
      "ĠQuery": 2770,
      "Async": 2771,
      "lias": 2772,
      ":\"": 2773,
      "Ġmain": 2774,
      "Ġiterator": 2775,
      "Ġcfg": 2776,
      "...": 2777,
      "PAR": 2778,
      "ian": 2779,
      "Ġcannot": 2780,
      "Meta": 2781,
      "ABLE": 2782,
      "Ġbucket": 2783,
      "ROR": 2784,
      "Sets": 2785,
      "ĠDescribe": 2786,
      "0000": 2787,
      "Ġslice": 2788,
      "curs": 2789,
      "atures": 2790,
      "Ġaccept": 2791,
      "Ġenum": 2792,
      "spec": 2793,
      "idden": 2794,
      "Ġtwo": 2795,
      "imestamp": 2796,
      "Ġremov": 2797,
      "Ġloop": 2798,
      "UM": 2799,
      "Ġpan": 2800,
      "ump": 2801,
      "Unit": 2802,
      "ccur": 2803,
      "Ġpe": 2804,
      "Ġfollow": 2805,
      "oice": 2806,
      "Ġprev": 2807,
      "amed": 2808,
      "Ġhelp": 2809,
      "greg": 2810,
      "Ġbl": 2811,
      "ĠgetF": 2812,
      "Ġ<>": 2813,
      "ires": 2814,
      "level": 2815,
      "hash": 2816,
      "ploy": 2817,
      "ivity": 2818,
      "width": 2819,
      "vision": 2820,
      "fields": 2821,
      "cing": 2822,
      "Ġincl": 2823,
      "Ġyield": 2824,
      "uccess": 2825,
      "Ġ**": 2826,
      "column": 2827,
      "Impl": 2828,
      "Debug": 2829,
      "eded": 2830,
      "Ġbit": 2831,
      "Ġdes": 2832,
      "AGE": 2833,
      "Ġsite": 2834,
      "ii": 2835,
      "Ġunit": 2836,
      "Del": 2837,
      "TML": 2838,
      "ĠSprintf": 2839,
      "imal": 2840,
      "ĠHand": 2841,
      "reen": 2842,
      "endar": 2843,
      "output": 2844,
      "Ġpool": 2845,
      "ending": 2846,
      "chedule": 2847,
      "br": 2848,
      "RA": 2849,
      "ĠSc": 2850,
      "ĠLoc": 2851,
      "ges": 2852,
      "Directory": 2853,
      "full": 2854,
      "Ġcluster": 2855,
      "Ġwhether": 2856,
      "Inner": 2857,
      "Ġtimestamp": 2858,
      "sup": 2859,
      "ĠReturns": 2860,
      "atform": 2861,
      "ured": 2862,
      "Ġreal": 2863,
      "Pool": 2864,
      "Ġsupport": 2865,
      "::": 2866,
      "address": 2867,
      "ĠĠĠĠĠĠĠĠĠĠĠĠĠ": 2868,
      "Ġauthor": 2869,
      "Ġextra": 2870,
      "IC": 2871,
      "Ġ16": 2872,
      "Ġcs": 2873,
      "Ġmapping": 2874,
      "Ġcb": 2875,
      "stract": 2876,
      "istory": 2877,
      "rel": 2878,
      "Ġcomment": 2879,
      "eom": 2880,
      "day": 2881,
      "ĠgetB": 2882,
      "dk": 2883,
      "ĠParse": 2884,
      "Style": 2885,
      "Loader": 2886,
      "Ġwithout": 2887,
      "Wh": 2888,
      "Ġproxy": 2889,
      "self": 2890,
      "Len": 2891,
      "div": 2892,
      "Ġprovider": 2893,
      "co": 2894,
      "iler": 2895,
      "do": 2896,
      "Ġgoto": 2897,
      "Ġthey": 2898,
      "ĠPHP": 2899,
      "ĠgetClass": 2900,
      "Ġnet": 2901,
      "xml": 2902,
      "Resol": 2903,
      "Ġesc": 2904,
      "cheme": 2905,
      "ll": 2906,
      "Ġlogging": 2907,
      "ND": 2908,
      "Channel": 2909,
      "app": 2910,
      "Ġprepare": 2911,
      "sumer": 2912,
      "ward": 2913,
      "irtual": 2914,
      "ground": 2915,
      "{}": 2916,
      "Ġfix": 2917,
      "Constants": 2918,
      "comp": 2919,
      "pack": 2920,
      "ired": 2921,
      "Ġcore": 2922,
      "Ġspecific": 2923,
      "js": 2924,
      "Failed": 2925,
      "redentials": 2926,
      "ither": 2927,
      "ĠLA": 2928,
      "Ġdestination": 2929,
      "Min": 2930,
      "Ġrules": 2931,
      "(\"": 2932,
      "Controller": 2933,
      ").": 2934,
      "Ġallowed": 2935,
      "Alias": 2936,
      "med": 2937,
      "parent": 2938,
      "Ġcontents": 2939,
      "Http": 2940,
      "lib": 2941,
      "ym": 2942,
      "Ġflags": 2943,
      "Ġforce": 2944,
      "Comp": 2945,
      "Ġ'#": 2946,
      "25": 2947,
      "ulti": 2948,
      "Ġreader": 2949,
      "ived": 2950,
      "Copy": 2951,
      "Ġpol": 2952,
      "Ġpaths": 2953,
      "Fe": 2954,
      "ayment": 2955,
      "element": 2956,
      "Color": 2957,
      "andard": 2958,
      "riority": 2959,
      "alk": 2960,
      "Any": 2961,
      "ĠPre": 2962,
      "heet": 2963,
      "Wrap": 2964,
      "ĠOr": 2965,
      "Exp": 2966,
      "ability": 2967,
      "ogle": 2968,
      "etri": 2969,
      "ĠAs": 2970,
      "ĠIP": 2971,
      "current": 2972,
      "Ġabout": 2973,
      "ĠTo": 2974,
      "Ġcommon": 2975,
      "ĠOut": 2976,
      "sign": 2977,
      "module": 2978,
      "Search": 2979,
      "ferences": 2980,
      "space": 2981,
      "Ġflag": 2982,
      "Ġconsole": 2983,
      ">\"": 2984,
      "ĠMethod": 2985,
      "JSON": 2986,
      "Ġsocket": 2987,
      "Operation": 2988,
      "ĠDefault": 2989,
      "Ġutils": 2990,
      "Ġlistener": 2991,
      "bed": 2992,
      "eleted": 2993,
      "known": 2994,
      "amples": 2995,
      "Role": 2996,
      "ites": 2997,
      "cent": 2998,
      "ĠWeb": 2999,
      "BU": 3000,
      "char": 3001,
      "Gets": 3002,
      "uto": 3003,
      "Identifier": 3004,
      "Cal": 3005,
      "Uri": 3006,
      "Ġlike": 3007,
      "ĠPl": 3008,
      "Ġfolder": 3009,
      "ĠElement": 3010,
      "other": 3011,
      "Ġprom": 3012,
      "Ġdf": 3013,
      "ĠParam": 3014,
      "encode": 3015,
      "ĠIter": 3016,
      "Ġproduct": 3017,
      "Ġlayer": 3018,
      "Ġsubstring": 3019,
      "Ġregion": 3020,
      "Ġstatement": 3021,
      "gor": 3022,
      "Ġdet": 3023,
      "Last": 3024,
      "Ġshort": 3025,
      "Ġcalcul": 3026,
      "eline": 3027,
      "04": 3028,
      "Ġsm": 3029,
      "fe": 3030,
      "entication": 3031,
      "Account": 3032,
      "AS": 3033,
      "eger": 3034,
      "ĠDis": 3035,
      "eric": 3036,
      "Ġreflect": 3037,
      "ĠPrint": 3038,
      "Limit": 3039,
      "rency": 3040,
      "thon": 3041,
      "Ġprofile": 3042,
      "Change": 3043,
      "Ġdesc": 3044,
      "LS": 3045,
      "Ġdst": 3046,
      "IG": 3047,
      "iff": 3048,
      "ĠCall": 3049,
      "utable": 3050,
      "trie": 3051,
      "ways": 3052,
      "Val": 3053,
      "Parent": 3054,
      "ĠGener": 3055,
      "oke": 3056,
      "rice": 3057,
      "Ġgu": 3058,
      "Ġthrough": 3059,
      "UID": 3060,
      "Internal": 3061,
      "ators": 3062,
      "ĠSQL": 3063,
      "Api": 3064,
      "Ġexpr": 3065,
      "Ġmask": 3066,
      "Write": 3067,
      "Ġgrid": 3068,
      "dr": 3069,
      "lv": 3070,
      "Ġsure": 3071,
      "search": 3072,
      "Ġperform": 3073,
      "env": 3074,
      "Att": 3075,
      "command": 3076,
      "Ġconnect": 3077,
      "Schema": 3078,
      "UP": 3079,
      "Ġtrigger": 3080,
      "mine": 3081,
      "Ġpair": 3082,
      "bl": 3083,
      "nel": 3084,
      "root": 3085,
      "Ġbetween": 3086,
      "Ġgra": 3087,
      "Sup": 3088,
      "Ġunique": 3089,
      "gorith": 3090,
      "Ġaddr": 3091,
      "Variable": 3092,
      "achine": 3093,
      "ĠInt": 3094,
      "Ġfinally": 3095,
      "Ġadded": 3096,
      "Ġdig": 3097,
      "URI": 3098,
      "Ġruntime": 3099,
      "scription": 3100,
      "GER": 3101,
      "Ġsequence": 3102,
      "02": 3103,
      "Ġ\",": 3104,
      "miss": 3105,
      "CTION": 3106,
      "ww": 3107,
      "marshal": 3108,
      "Ġundefined": 3109,
      "plied": 3110,
      "pond": 3111,
      "Ġbinary": 3112,
      "\",": 3113,
      "IME": 3114,
      "Ġsorted": 3115,
      "Build": 3116,
      "ourse": 3117,
      "SP": 3118,
      "Ġweight": 3119,
      "Module": 3120,
      "Headers": 3121,
      "Ġdiff": 3122,
      "ĠAuth": 3123,
      "ĠId": 3124,
      "Find": 3125,
      "Items": 3126,
      "Ġrest": 3127,
      "izes": 3128,
      "Ġoptional": 3129,
      "ĠgetType": 3130,
      "ategy": 3131,
      "iddle": 3132,
      "ĠindexOf": 3133,
      "Ġour": 3134,
      "lers": 3135,
      "Ġredirect": 3136,
      "Ġprob": 3137,
      "Ġmonth": 3138,
      "eners": 3139,
      "Ġmember": 3140,
      "OK": 3141,
      "Ġsim": 3142,
      "Ġpoints": 3143,
      "Ġzip": 3144,
      "atal": 3145,
      "resource": 3146,
      "bserv": 3147,
      "Ġmatrix": 3148,
      "ested": 3149,
      "Ġcategory": 3150,
      "ipe": 3151,
      "Ġvariables": 3152,
      "Ġns": 3153,
      "etermine": 3154,
      "ĠToken": 3155,
      "NS": 3156,
      "Ġgen": 3157,
      "utf": 3158,
      "Ġscale": 3159,
      "Warn": 3160,
      "Ġman": 3161,
      "Ġimplode": 3162,
      "System": 3163,
      "ĠModel": 3164,
      "cover": 3165,
      "Ġplace": 3166,
      "ĠXML": 3167,
      "source": 3168,
      "lip": 3169,
      "Ġselected": 3170,
      "ermissions": 3171,
      "Ġexplode": 3172,
      "Ġvert": 3173,
      "ĠSE": 3174,
      "arg": 3175,
      "ĠLo": 3176,
      "Ġstats": 3177,
      "Addr": 3178,
      "Ġatom": 3179,
      "Ġuntil": 3180,
      "ĠgetT": 3181,
      "Ġdtype": 3182,
      "Queue": 3183,
      "session": 3184,
      "Json": 3185,
      "ĠInternal": 3186,
      "Descriptor": 3187,
      "mode": 3188,
      "Ġdetails": 3189,
      "open": 3190,
      "DO": 3191,
      "ictionary": 3192,
      "Ġtuple": 3193,
      "PER": 3194,
      "Ġlambda": 3195,
      "Ġĉ": 3196,
      "gr": 3197,
      "Iterator": 3198,
      "vlet": 3199,
      "ateway": 3200,
      "Parse": 3201,
      "template": 3202,
      "Ġstrlen": 3203,
      "Ġannotation": 3204,
      "Nodes": 3205,
      "ĠNULL": 3206,
      "Ġplot": 3207,
      "Application": 3208,
      "encies": 3209,
      "Execution": 3210,
      "di": 3211,
      "MENT": 3212,
      "gle": 3213,
      "Ġactual": 3214,
      "bar": 3215,
      "Byte": 3216,
      "INT": 3217,
      "We": 3218,
      "Frame": 3219,
      "ily": 3220,
      "Ġsubject": 3221,
      "Ġentries": 3222,
      "akes": 3223,
      "ĠServer": 3224,
      "ĠStringBuilder": 3225,
      "ĠInvalidArgumentException": 3226,
      "Ġretrie": 3227,
      "########": 3228,
      "Ġmultiple": 3229,
      "straints": 3230,
      "Ġextends": 3231,
      "ĠSec": 3232,
      "Mapping": 3233,
      "Pattern": 3234,
      "ĠRuntimeException": 3235,
      "Ġclone": 3236,
      "Ġrout": 3237,
      "Ġprivate": 3238,
      "prefix": 3239,
      "go": 3240,
      "Ġsince": 3241,
      "very": 3242,
      "verter": 3243,
      "Do": 3244,
      "Storage": 3245,
      "Ġtab": 3246,
      "24": 3247,
      "Ġsynchron": 3248,
      "Ġlabels": 3249,
      "rok": 3250,
      "ls": 3251,
      "Ġgroups": 3252,
      "Ġtf": 3253,
      "olute": 3254,
      "Route": 3255,
      "stream": 3256,
      "Annotation": 3257,
      "Ġids": 3258,
      "Handle": 3259,
      "Ġsupported": 3260,
      "ship": 3261,
      "Def": 3262,
      "ced": 3263,
      "GET": 3264,
      "ĠSe": 3265,
      "color": 3266,
      "Ġsegment": 3267,
      "gorithm": 3268,
      "lem": 3269,
      "Ġdocs": 3270,
      "Ġsent": 3271,
      "Ġfactory": 3272,
      "Ġsymbol": 3273,
      "Ġcollect": 3274,
      "ATH": 3275,
      "position": 3276,
      "notations": 3277,
      "service": 3278,
      "ĠAWS": 3279,
      "aining": 3280,
      "Ġent": 3281,
      "Vis": 3282,
      "Ġcp": 3283,
      "ymbol": 3284,
      "Ġrequests": 3285,
      "Ġyear": 3286,
      "ĠState": 3287,
      "Remove": 3288,
      "Seg": 3289,
      "Ġ<-": 3290,
      "Description": 3291,
      "['": 3292,
      "Endpoint": 3293,
      "Ġcommit": 3294,
      "gram": 3295,
      "Ġsample": 3296,
      "KEY": 3297,
      "Ġtrack": 3298,
      "target": 3299,
      "Ġretry": 3300,
      "Ġmanager": 3301,
      "Ġdoesn": 3302,
      "Ġlang": 3303,
      "ases": 3304,
      "Repository": 3305,
      "Ġattach": 3306,
      "tot": 3307,
      "Ġunless": 3308,
      "Ġmulti": 3309,
      "Ġasset": 3310,
      "Ġweb": 3311,
      "Ġadditional": 3312,
      "FO": 3313,
      "Ġdatetime": 3314,
      "Ġmissing": 3315,
      "Ġ','": 3316,
      "eek": 3317,
      "Ġclasses": 3318,
      "items": 3319,
      "Ġcert": 3320,
      "sec": 3321,
      "inate": 3322,
      "Ġpossible": 3323,
      "ves": 3324,
      "Ġcontrol": 3325,
      "ountry": 3326,
      "card": 3327,
      "Logger": 3328,
      "Ġpolicy": 3329,
      "Ġenvironment": 3330,
      "ĠDEFAULT": 3331,
      "Msg": 3332,
      "etrie": 3333,
      "Ġoccur": 3334,
      "One": 3335,
      "bstract": 3336,
      "istr": 3337,
      "now": 3338,
      "andid": 3339,
      "ĠIndex": 3340,
      "org": 3341,
      "Transaction": 3342,
      "ynam": 3343,
      "Ġeither": 3344,
      "rary": 3345,
      "bose": 3346,
      "Ġcursor": 3347,
      "offset": 3348,
      "Post": 3349,
      "wh": 3350,
      "Ġcharacter": 3351,
      "Ġrepository": 3352,
      "cr": 3353,
      "Ġprimary": 3354,
      "mark": 3355,
      "ĠCode": 3356,
      "Bind": 3357,
      "rowser": 3358,
      "Ġexport": 3359,
      "ĠBase": 3360,
      "50": 3361,
      "actor": 3362,
      "Ġcurl": 3363,
      "Ġast": 3364,
      "Ġ'$": 3365,
      "record": 3366,
      "Control": 3367,
      "ng": 3368,
      "qual": 3369,
      "Unable": 3370,
      "App": 3371,
      "Ġsignature": 3372,
      "PRO": 3373,
      "header": 3374,
      "EM": 3375,
      "Ġecho": 3376,
      "Ġcould": 3377,
      "US": 3378,
      "Ġvalidation": 3379,
      "Columns": 3380,
      "Bean": 3381,
      "Ġagain": 3382,
      "ifiers": 3383,
      "description": 3384,
      "Ġiss": 3385,
      "Only": 3386,
      "Ġensure": 3387,
      "ANG": 3388,
      "Sp": 3389,
      "Ġident": 3390,
      "Select": 3391,
      "ese": 3392,
      "Ġet": 3393,
      "callback": 3394,
      "ha": 3395,
      "coder": 3396,
      "Ġoff": 3397,
      "DK": 3398,
      "Ġmy": 3399,
      "Ġcompare": 3400,
      "Top": 3401,
      "Namespace": 3402,
      "Tracing": 3403,
      "dat": 3404,
      "Bundle": 3405,
      "Statement": 3406,
      "ĠLong": 3407,
      "utor": 3408,
      "ycle": 3409,
      "Ġowner": 3410,
      "ĠBoolean": 3411,
      "VE": 3412,
      "tree": 3413,
      "Ġcreates": 3414,
      "Ġfilters": 3415,
      "ĠDec": 3416,
      "NO": 3417,
      "Condition": 3418,
      "Ġdriver": 3419,
      "Render": 3420,
      "ĠImage": 3421,
      "Ġattrs": 3422,
      "ĠWith": 3423,
      "ĠJson": 3424,
      "ĠSup": 3425,
      "ĠSdk": 3426,
      "change": 3427,
      "ts": 3428,
      "stall": 3429,
      "Ġpresent": 3430,
      "ĠMod": 3431,
      "body": 3432,
      "Ġyour": 3433,
      "Ġcorrect": 3434,
      "Ġdispatch": 3435,
      "Ġwarning": 3436,
      "13": 3437,
      "ĠResult": 3438,
      "adding": 3439,
      "Ġbundle": 3440,
      "gener": 3441,
      "Each": 3442,
      "Ġinner": 3443,
      "reshold": 3444,
      "IM": 3445,
      "argument": 3446,
      "Results": 3447,
      "Trace": 3448,
      "cip": 3449,
      "aly": 3450,
      "Ġselector": 3451,
      "ually": 3452,
      "Tags": 3453,
      "Ġexample": 3454,
      "Ġkeep": 3455,
      "Decl": 3456,
      "UB": 3457,
      "Ġprops": 3458,
      "filename": 3459,
      "ĠPage": 3460,
      "14": 3461,
      "20": 3462,
      "ĠTYPE": 3463,
      "section": 3464,
      "idx": 3465,
      "ORM": 3466,
      "Ġdefaults": 3467,
      "TracingEnabled": 3468,
      "comment": 3469,
      "Ġwithin": 3470,
      "Elements": 3471,
      "Ġcached": 3472,
      "calar": 3473,
      "Ġca": 3474,
      "Ġpkg": 3475,
      "Ġspace": 3476,
      "Us": 3477,
      "Ġchanges": 3478,
      "Ġpred": 3479,
      "Ġstmt": 3480,
      "Ġmd": 3481,
      "option": 3482,
      "plates": 3483,
      "ĠisAny": 3484,
      "ores": 3485,
      "zone": 3486,
      "icode": 3487,
      "ĠLock": 3488,
      "vm": 3489,
      "tol": 3490,
      "Env": 3491,
      "ĠCON": 3492,
      "fact": 3493,
      "Ow": 3494,
      "Sum": 3495,
      "Ġdecl": 3496,
      "ĠWh": 3497,
      "ĠCommand": 3498,
      "Bound": 3499,
      "QU": 3500,
      "me": 3501,
      "ĠOpen": 3502,
      "illis": 3503,
      "Ġindent": 3504,
      "acy": 3505,
      "ĠByte": 3506,
      "CK": 3507,
      "ĠisAnyTracingEnabled": 3508,
      "dim": 3509,
      "build": 3510,
      "Ġlayout": 3511,
      "Ġfont": 3512,
      "PC": 3513,
      "Box": 3514,
      "ignment": 3515,
      "vis": 3516,
      "////////////////": 3517,
      "ferent": 3518,
      "ĠLe": 3519,
      "ragment": 3520,
      "ĠDoc": 3521,
      "aml": 3522,
      "Ġcap": 3523,
      "Upd": 3524,
      "ĠBuffer": 3525,
      "Ġupdated": 3526,
      "ĠClose": 3527,
      "ols": 3528,
      "ialog": 3529,
      "copy": 3530,
      "Ġ${": 3531,
      "Ġ\"<": 3532,
      "Ġexc": 3533,
      "Ġ'--": 3534,
      "active": 3535,
      "Ġ\"\"\"": 3536,
      "MS": 3537,
      "Ġrepo": 3538,
      "Ġmedia": 3539,
      "itude": 3540,
      "Ġotherwise": 3541,
      "Oper": 3542,
      "Conn": 3543,
      "plete": 3544,
      "Mem": 3545,
      "']": 3546,
      "Ġattem": 3547,
      "lines": 3548,
      "Ġrunning": 3549,
      "Ġchanged": 3550,
      "Ġhigh": 3551,
      "Ġ\".": 3552,
      "Ġsig": 3553,
      "ĠValidate": 3554,
      "ĠTable": 3555,
      "ixel": 3556,
      "Ġenumer": 3557,
      "ense": 3558,
      "Ġstrpos": 3559,
      "Ġinstead": 3560,
      "plicit": 3561,
      "location": 3562,
      "Ġfuture": 3563,
      "ĠUtil": 3564,
      "erson": 3565,
      "ĠLocal": 3566,
      "server": 3567,
      "Ġbutton": 3568,
      "Ġflat": 3569,
      "ĠgetPro": 3570,
      "Ġinteger": 3571,
      "Enum": 3572,
      "okens": 3573,
      "Ġtt": 3574,
      "ATOR": 3575,
      "msg": 3576,
      "Ġneeded": 3577,
      "ernel": 3578,
      "ĠgetKey": 3579,
      "ĠTypeError": 3580,
      "ĠRemove": 3581,
      "Ġcriteria": 3582,
      "ĠErrCode": 3583,
      "SO": 3584,
      "ider": 3585,
      "eometry": 3586,
      "CA": 3587,
      "ĠNumber": 3588,
      "ERROR": 3589,
      "Ġpartition": 3590,
      "Ġedge": 3591,
      "umb": 3592,
      "case": 3593,
      "Author": 3594,
      "limit": 3595,
      "ĠCal": 3596,
      "Ġrs": 3597,
      "Ġdepth": 3598,
      "tom": 3599,
      "15": 3600,
      "ĠAttribute": 3601,
      "Ġ^": 3602,
      "ĠStart": 3603,
      "Ġwidget": 3604,
      "Inv": 3605,
      "ives": 3606,
      "Ġmatching": 3607,
      "Ġfilepath": 3608,
      "ĠNote": 3609,
      "ues": 3610,
      "Wrapper": 3611,
      "connect": 3612,
      "Ġunder": 3613,
      "Ġevery": 3614,
      "ĠTraceComponent": 3615,
      "Button": 3616,
      "Ġupload": 3617,
      "book": 3618,
      "asure": 3619,
      "chive": 3620,
      "Groups": 3621,
      "Ġdelta": 3622,
      "wd": 3623,
      "child": 3624,
      "Extension": 3625,
      "Ġemit": 3626,
      "Ġassociated": 3627,
      "ibility": 3628,
      "Cluster": 3629,
      "Agent": 3630,
      "),": 3631,
      "Ġrelative": 3632,
      "ĠOutput": 3633,
      "Ġzero": 3634,
      "Ġmove": 3635,
      "Ġfill": 3636,
      "Ġsetting": 3637,
      "azz": 3638,
      "ĠĠĠĠĠĠĠ": 3639,
      "Ġdrop": 3640,
      "Atom": 3641,
      "#{": 3642,
      "Ġround": 3643,
      "core": 3644,
      "first": 3645,
      "alys": 3646,
      "Ġonce": 3647,
      "upt": 3648,
      "ACK": 3649,
      "Ġpopul": 3650,
      "Script": 3651,
      "email": 3652,
      "bound": 3653,
      "Device": 3654,
      "Adds": 3655,
      "Ġauto": 3656,
      "19": 3657,
      "req": 3658,
      "Ġelem": 3659,
      "\"\"": 3660,
      "Ġhow": 3661,
      "custom": 3662,
      "Ġflush": 3663,
      "password": 3664,
      "OP": 3665,
      "admin": 3666,
      "ĠHead": 3667,
      "used": 3668,
      "top": 3669,
      "PRE": 3670,
      "Ġcompute": 3671,
      "80": 3672,
      "Ġinterval": 3673,
      "off": 3674,
      "Ġtheir": 3675,
      "range": 3676,
      "Ġusers": 3677,
      "Open": 3678,
      "Ġmodels": 3679,
      "(?": 3680,
      "Ġdt": 3681,
      "bit": 3682,
      "acity": 3683,
      "mar": 3684,
      "application": 3685,
      "SION": 3686,
      "uded": 3687,
      "Ġart": 3688,
      "Ġlookup": 3689,
      "ĠDI": 3690,
      "asc": 3691,
      "cessed": 3692,
      "HTTP": 3693,
      "ĠgetInstance": 3694,
      "Ġstructure": 3695,
      "Ġenabled": 3696,
      "ĠContent": 3697,
      "ĠDouble": 3698,
      "ĠURI": 3699,
      "only": 3700,
      "Ġ\"-": 3701,
      "crement": 3702,
      "ĠChar": 3703,
      "Ġsol": 3704,
      "Required": 3705,
      "ATA": 3706,
      "33": 3707,
      "Long": 3708,
      "Ġdataset": 3709,
      "jection": 3710,
      "icle": 3711,
      "Ġalways": 3712,
      "Ġpod": 3713,
      "ault": 3714,
      "Red": 3715,
      "ĠDateTime": 3716,
      "iteral": 3717,
      "Ġ'\\\\": 3718,
      "))": 3719,
      "itive": 3720,
      "herit": 3721,
      "Ġmean": 3722,
      "Ġremoved": 3723,
      "Ġdraw": 3724,
      "PTION": 3725,
      "Ġoperator": 3726,
      "Use": 3727,
      "Ġ{}\"": 3728,
      "local": 3729,
      "\\'": 3730,
      "Ph": 3731,
      "just": 3732,
      "delete": 3733,
      "Ġduration": 3734,
      "Ġ#{": 3735,
      "ffect": 3736,
      "]+": 3737,
      "Sl": 3738,
      "Ġdiv": 3739,
      "INE": 3740,
      "ĠNO": 3741,
      "Ġts": 3742,
      "ĠThrow": 3743,
      "Layout": 3744,
      "bservable": 3745,
      "Ġrelated": 3746,
      "Ġcss": 3747,
      "Domain": 3748,
      "Ġencoded": 3749,
      "Ġamazon": 3750,
      "Ġfollowing": 3751,
      "board": 3752,
      "words": 3753,
      "Fail": 3754,
      "Ġcancel": 3755,
      "ĠGroup": 3756,
      "Ġvisit": 3757,
      "Ġsuffix": 3758,
      "First": 3759,
      "Ġproto": 3760,
      "urrent": 3761,
      "lap": 3762,
      "ĠinvalidParams": 3763,
      "Ġrequested": 3764,
      "Ġevalu": 3765,
      "ural": 3766,
      "true": 3767,
      "Ġob": 3768,
      "Av": 3769,
      "Ġalt": 3770,
      "del": 3771,
      "stack": 3772,
      "Plugin": 3773,
      "Ġimg": 3774,
      "Ġdifferent": 3775,
      "FILE": 3776,
      "Ignore": 3777,
      "Ġmemory": 3778,
      "Language": 3779,
      "Ġds": 3780,
      "ClientException": 3781,
      "container": 3782,
      "Events": 3783,
      "000": 3784,
      "Ġprintln": 3785,
      "Ġ201": 3786,
      "22": 3787,
      "lowed": 3788,
      "frame": 3789,
      "Details": 3790,
      "ntax": 3791,
      "Ġsync": 3792,
      "ouse": 3793,
      "ZE": 3794,
      "ĠforEach": 3795,
      "Ġbest": 3796,
      "rt": 3797,
      "POST": 3798,
      "Ġinstall": 3799,
      "roy": 3800,
      "cursive": 3801,
      "Custom": 3802,
      "Ġbranch": 3803,
      "sort": 3804,
      "Resources": 3805,
      "Ġvector": 3806,
      "ĠInfo": 3807,
      "Ġpublish": 3808,
      "uff": 3809,
      "async": 3810,
      "ifest": 3811,
      "Ġfr": 3812,
      "test": 3813,
      "ĠUnmarshal": 3814,
      "Ġtyp": 3815,
      "([": 3816,
      "Op": 3817,
      "anner": 3818,
      "Space": 3819,
      "eam": 3820,
      "Ġgr": 3821,
      "Ġuuid": 3822,
      "Struct": 3823,
      "Ġmenu": 3824,
      "expected": 3825,
      "Send": 3826,
      "Ġhex": 3827,
      "Ġjs": 3828,
      "Window": 3829,
      "Thread": 3830,
      "por": 3831,
      "Ġbeing": 3832,
      "Ġseq": 3833,
      "ClassName": 3834,
      "Ġconcat": 3835,
      "totype": 3836,
      "ĠTask": 3837,
      "opt": 3838,
      "ek": 3839,
      "iate": 3840,
      "ĠEntry": 3841,
      "ipeline": 3842,
      "Attr": 3843,
      "Ġamount": 3844,
      "static": 3845,
      "Ġkind": 3846,
      "Ġ32": 3847,
      "Retrie": 3848,
      "Ġoverride": 3849,
      "cor": 3850,
      "Ġnotification": 3851,
      "Ġsynchronized": 3852,
      "Ġrecords": 3853,
      "Ġupper": 3854,
      "cell": 3855,
      "estination": 3856,
      "ĠFl": 3857,
      "ĠNon": 3858,
      "Ġhasattr": 3859,
      "access": 3860,
      "Ġchan": 3861,
      "Ġquote": 3862,
      "Ġphp": 3863,
      "]'": 3864,
      "CO": 3865,
      "Ind": 3866,
      "ĠText": 3867,
      "uplic": 3868,
      "Ġgetattr": 3869,
      "rows": 3870,
      "ORT": 3871,
      "yles": 3872,
      "Transl": 3873,
      "Ġedit": 3874,
      "Ġsetup": 3875,
      "Scope": 3876,
      "ĠSession": 3877,
      "Ġcookie": 3878,
      "Ġperiod": 3879,
      "Ġdictionary": 3880,
      "ĠSDK": 3881,
      "Mark": 3882,
      "Ġnormalize": 3883,
      "Ġinstances": 3884,
      "Ġconstructor": 3885,
      "Proxy": 3886,
      "ĠEntity": 3887,
      "Ġdistance": 3888,
      "ĠExec": 3889,
      "bytes": 3890,
      "HER": 3891,
      "ithub": 3892,
      "Chain": 3893,
      "Ġcomb": 3894,
      "Ġcounter": 3895,
      "Active": 3896,
      "Ġhref": 3897,
      "Ġpersist": 3898,
      "Folder": 3899,
      "HE": 3900,
      "meta": 3901,
      "STR": 3902,
      "Ġexternal": 3903,
      "Ġhe": 3904,
      "ĠCl": 3905,
      "Network": 3906,
      "ayers": 3907,
      "Generator": 3908,
      "Ġstdout": 3909,
      "Left": 3910,
      "ĠgetProperty": 3911,
      "Ġcomplete": 3912,
      "Password": 3913,
      "ĠBlock": 3914,
      "pol": 3915,
      "Locale": 3916,
      "mem": 3917,
      "LECT": 3918,
      "Ġbox": 3919,
      "ynamic": 3920,
      "Ġ':'": 3921,
      "decode": 3922,
      "conf": 3923,
      "eries": 3924,
      "Ġlogin": 3925,
      "ializer": 3926,
      "rec": 3927,
      "Ġdot": 3928,
      "Ġverify": 3929,
      "Ġends": 3930,
      "Ġbean": 3931,
      "OF": 3932,
      "Ġpanic": 3933,
      "ended": 3934,
      "Current": 3935,
      "Ġregex": 3936,
      "Ġboth": 3937,
      "tolower": 3938,
      "ĠPAR": 3939,
      "Ġvolume": 3940,
      "ĠRef": 3941,
      "ROM": 3942,
      "GroupName": 3943,
      "Word": 3944,
      "Ver": 3945,
      "acter": 3946,
      "Ġ-=": 3947,
      "DS": 3948,
      "Ġcharacters": 3949,
      "icon": 3950,
      "mission": 3951,
      "Ġbel": 3952,
      "Ġhook": 3953,
      "amily": 3954,
      "ĠTem": 3955,
      "ĠJob": 3956,
      "ecess": 3957,
      "Ġtopic": 3958,
      "Ġequal": 3959,
      "ixed": 3960,
      "ĠStream": 3961,
      "havi": 3962,
      "Relation": 3963,
      "ORY": 3964,
      "uce": 3965,
      "olog": 3966,
      "ĠUnlock": 3967,
      "ĠfileName": 3968,
      "span": 3969,
      "Ġvia": 3970,
      "Ġreason": 3971,
      "Ġnumpy": 3972,
      "Ġcorres": 3973,
      "Ġseconds": 3974,
      "ensor": 3975,
      "Conf": 3976,
      "parameters": 3977,
      "ĠStr": 3978,
      "LASS": 3979,
      "contents": 3980,
      "Ġadmin": 3981,
      "ĠHTML": 3982,
      "XT": 3983,
      "ross": 3984,
      "irm": 3985,
      "ĠAm": 3986,
      "ifact": 3987,
      "Ġverbose": 3988,
      "Non": 3989,
      "NotFoundException": 3990,
      "ES": 3991,
      "Ġrelease": 3992,
      "NON": 3993,
      "grade": 3994,
      "ven": 3995,
      "Register": 3996,
      "SQL": 3997,
      "ĠBuild": 3998,
      "Ġmetric": 3999,
      "queue": 4000,
      "Ġsecret": 4001,
      "Exists": 4002,
      "Ġclazz": 4003,
      "}/": 4004,
      "OST": 4005,
      "Interval": 4006,
      "Ġprogress": 4007,
      "ĠFilter": 4008,
      "ene": 4009,
      "Ġifc": 4010,
      "ĠFI": 4011,
      "shift": 4012,
      "anization": 4013,
      "Ġ'-'": 4014,
      "ĠDebug": 4015,
      "Ġ\"/\"": 4016,
      "uring": 4017,
      "hing": 4018,
      "ĠDep": 4019,
      "Cell": 4020,
      "Sequence": 4021,
      "ĠisDebug": 4022,
      "Ġregistry": 4023,
      "Ġtick": 4024,
      "select": 4025,
      "Ġorigin": 4026,
      "tribution": 4027,
      "Ġservices": 4028,
      "Profile": 4029,
      "ategories": 4030,
      "Ġway": 4031,
      "plot": 4032,
      "17": 4033,
      "ĠTag": 4034,
      "*'": 4035,
      "prec": 4036,
      "ĠConvert": 4037,
      "ĠSdkClientException": 4038,
      "ĠContainer": 4039,
      "Ġagent": 4040,
      "Ġstored": 4041,
      "Ġanother": 4042,
      "SET": 4043,
      "Ġ200": 4044,
      "Ġmer": 4045,
      "Ġinitialize": 4046,
      "Sync": 4047,
      "ĠLink": 4048,
      "ĠVersion": 4049,
      "ĠConnection": 4050,
      "VALUE": 4051,
      "ĠAd": 4052,
      "Ġwrapper": 4053,
      "iddleware": 4054,
      "ĠOptional": 4055,
      "Ġdisable": 4056,
      "cp": 4057,
      "Ġlogic": 4058,
      "Transform": 4059,
      "style": 4060,
      "ĠgetAttribute": 4061,
      "uction": 4062,
      "oper": 4063,
      "exception": 4064,
      "Term": 4065,
      "PA": 4066,
      "QUE": 4067,
      "Ġdirection": 4068,
      "Pan": 4069,
      "Lower": 4070,
      "connection": 4071,
      "Ġplatform": 4072,
      "Ġengine": 4073,
      "Ġcompile": 4074,
      "Ġpres": 4075,
      "Ġfinish": 4076,
      "ĠFormat": 4077,
      "Ġacc": 4078,
      "Web": 4079,
      "Ġ>>>": 4080,
      "Checks": 4081,
      "Clo": 4082,
      "right": 4083,
      "Ġusage": 4084,
      "Ġcomponents": 4085,
      "Ġms": 4086,
      "Ġsav": 4087,
      "Ġloader": 4088,
      "onitor": 4089,
      "EntryEnabled": 4090,
      "scrib": 4091,
      "Ġdom": 4092,
      "vari": 4093,
      "plugin": 4094,
      "fully": 4095,
      "onds": 4096,
      "Ġcalls": 4097,
      "ty": 4098,
      "entry": 4099,
      "ĠisEntryEnabled": 4100,
      "track": 4101,
      "Ġwould": 4102,
      "Bucket": 4103,
      "Ġregistered": 4104,
      "Ġconversion": 4105,
      "buffer": 4106,
      "ITY": 4107,
      "romise": 4108,
      "Project": 4109,
      "handle": 4110,
      "Ġinclud": 4111,
      "ĠNull": 4112,
      "wrap": 4113,
      "Ġescape": 4114,
      "ĠAbstract": 4115,
      "ĠAND": 4116,
      "Arg": 4117,
      "Future": 4118,
      "step": 4119,
      "ployment": 4120,
      "Ġwhat": 4121,
      "alysis": 4122,
      "Ġsuch": 4123,
      "Ġtimes": 4124,
      "Ġbits": 4125,
      "Ġicon": 4126,
      "supported": 4127,
      "ecessary": 4128,
      "Ġmu": 4129,
      "LOW": 4130,
      "Segment": 4131,
      "Ġpermission": 4132,
      "Product": 4133,
      "Email": 4134,
      "Ġscan": 4135,
      "VI": 4136,
      "Graph": 4137,
      "quires": 4138,
      "points": 4139,
      "Ġcallable": 4140,
      "Ġnamed": 4141,
      "EXT": 4142,
      "Ġsimple": 4143,
      "Ġ\"{": 4144,
      "ĠLOGGER": 4145,
      "task": 4146,
      "ĠWork": 4147,
      "debug": 4148,
      "lex": 4149,
      "pose": 4150,
      "sume": 4151,
      "Ġans": 4152,
      "Ġvars": 4153,
      "Pair": 4154,
      "cast": 4155,
      "tags": 4156,
      "Ġzone": 4157,
      "Ġbin": 4158,
      "Ġfall": 4159,
      "Step": 4160,
      "author": 4161,
      "alth": 4162,
      "ĠFind": 4163,
      "Down": 4164,
      "metadata": 4165,
      "Ġseries": 4166,
      "ains": 4167,
      "Ġrot": 4168,
      "can": 4169,
      "ĠgetR": 4170,
      "Ġmaster": 4171,
      "cmd": 4172,
      "question": 4173,
      "inates": 4174,
      "condition": 4175,
      "handler": 4176,
      "exec": 4177,
      "Ġgp": 4178,
      "DER": 4179,
      "Ġstrtolower": 4180,
      "manager": 4181,
      "Ġseparator": 4182,
      "Ġsafe": 4183,
      "anaged": 4184,
      "ĠSpec": 4185,
      "Ġfunctions": 4186,
      "utdown": 4187,
      "Tx": 4188,
      "ĠOperation": 4189,
      "Ġalpha": 4190,
      "Ġcontaining": 4191,
      "Ġ\"_": 4192,
      "ferred": 4193,
      "ĠHE": 4194,
      "Stats": 4195,
      "Ġmigr": 4196,
      "atio": 4197,
      "ogn": 4198,
      "Ġdetermine": 4199,
      "Ġ20": 4200,
      "XML": 4201,
      "ĠĠĠĠĠĠ": 4202,
      "Ġloaded": 4203,
      "Ġtranslate": 4204,
      "Vari": 4205,
      "ĠThrowable": 4206,
      "Ġmaximum": 4207,
      "COM": 4208,
      "Ġactions": 4209,
      "height": 4210,
      "PATH": 4211,
      "Children": 4212,
      "Ġvalidator": 4213,
      "ĠJoin": 4214,
      "Ġidentity": 4215,
      "Adapter": 4216,
      "Desc": 4217,
      "istration": 4218,
      "Ġreverse": 4219,
      "ĠGo": 4220,
      "Ġbackend": 4221,
      "Ġhelper": 4222,
      "Idx": 4223,
      "Ġdownload": 4224,
      "Ġcandid": 4225,
      "Zone": 4226,
      "vc": 4227,
      "ĠisDebugEnabled": 4228,
      "Errors": 4229,
      "loaded": 4230,
      "Ġpid": 4231,
      "ĠER": 4232,
      "Ġmath": 4233,
      "Ġdisk": 4234,
      "ĠTR": 4235,
      "Display": 4236,
      "Ġenable": 4237,
      "ĠMax": 4238,
      "ECT": 4239,
      "inator": 4240,
      "Ġenumerate": 4241,
      "ĠLogger": 4242,
      "Registry": 4243,
      "Ġstartswith": 4244,
      "Day": 4245,
      "strap": 4246,
      "Title": 4247,
      "Ġ24": 4248,
      "Co": 4249,
      "Ġps": 4250,
      "Ġneg": 4251,
      "oom": 4252,
      "Ġfp": 4253,
      "Database": 4254,
      "PARATOR": 4255,
      "site": 4256,
      "ĠApplication": 4257,
      "CP": 4258,
      "Ġthese": 4259,
      "Ġneeds": 4260,
      "Ġpeer": 4261,
      "Ġpag": 4262,
      "script": 4263,
      "Ġnb": 4264,
      "leep": 4265,
      "ĠWrap": 4266,
      "Ġwatch": 4267,
      "Ġvm": 4268,
      "ĠNOT": 4269,
      "Validate": 4270,
      "Ġchecks": 4271,
      "settings": 4272,
      "Ġawait": 4273,
      "thing": 4274,
      "ĠRel": 4275,
      "ĠProperty": 4276,
      "Ġsignal": 4277,
      "':": 4278,
      "]\"": 4279,
      "Enc": 4280,
      "Ġlon": 4281,
      "Ġdeleted": 4282,
      "Ġdirname": 4283,
      "ĠFunction": 4284,
      "next": 4285,
      "Ġsalt": 4286,
      "istics": 4287,
      "parser": 4288,
      "ĠfieldName": 4289,
      "Ġ':": 4290,
      "Ġfig": 4291,
      "chedul": 4292,
      "fn": 4293,
      "IO": 4294,
      "Ġindices": 4295,
      "TO": 4296,
      "ĠBack": 4297,
      "HERE": 4298,
      "system": 4299,
      "Rows": 4300,
      "Resolver": 4301,
      "aration": 4302,
      "ĠgetData": 4303,
      "ĠHeader": 4304,
      "Parts": 4305,
      "Ġcurr": 4306,
      "AND": 4307,
      "domain": 4308,
      "Ġmetrics": 4309,
      "ĠObservable": 4310,
      "LETE": 4311,
      "Warnings": 4312,
      "56": 4313,
      "Ġdi": 4314,
      "cd": 4315,
      "alan": 4316,
      "ĠHashMap": 4317,
      "Ġmut": 4318,
      "ĠDocument": 4319,
      "Selector": 4320,
      "ĠSib": 4321,
      "Ġworker": 4322,
      "ĠvalueOf": 4323,
      "errors": 4324,
      "Ġcorrespond": 4325,
      "Ġasync": 4326,
      "channel": 4327,
      "ĠgetRequest": 4328,
      "Ġ//$": 4329,
      "plement": 4330,
      "Db": 4331,
      "Ġreply": 4332,
      "kwargs": 4333,
      "Identity": 4334,
      "Ġrepresentation": 4335,
      "Ġ1000": 4336,
      "ipher": 4337,
      "yg": 4338,
      "ĠgetPath": 4339,
      "imiter": 4340,
      "angle": 4341,
      "ĠItem": 4342,
      "Ġsk": 4343,
      "ĠMake": 4344,
      "eros": 4345,
      "ryption": 4346,
      "ĠOrder": 4347,
      "InputStream": 4348,
      "TR": 4349,
      "attributes": 4350,
      "Ġconfigured": 4351,
      "ĠSel": 4352,
      "Html": 4353,
      "Validation": 4354,
      "Ġscheme": 4355,
      "Ġinvoke": 4356,
      "Ġ'</": 4357,
      "Ġmodified": 4358,
      ";'": 4359,
      "ĠPh": 4360,
      "eo": 4361,
      "Ġcourse": 4362,
      "ports": 4363,
      "Ġcommands": 4364,
      "aj": 4365,
      "23": 4366,
      "ĠgetConfig": 4367,
      "Security": 4368,
      "ides": 4369,
      "SERVER": 4370,
      "Ġpermissions": 4371,
      "($": 4372,
      "Ġsecurity": 4373,
      "Ġgenerated": 4374,
      "Ġclosed": 4375,
      "bind": 4376,
      "Ġaggreg": 4377,
      "ĠInit": 4378,
      "ĠCache": 4379,
      "ighb": 4380,
      "Ġmodules": 4381,
      "ĠAction": 4382,
      "ĠSign": 4383,
      "unch": 4384,
      "buf": 4385,
      "Notification": 4386,
      "Ġest": 4387,
      "ants": 4388,
      "ĠProcess": 4389,
      "ours": 4390,
      "ARN": 4391,
      "atalog": 4392,
      "ĠHas": 4393,
      "Ġpriority": 4394,
      "Ġattempt": 4395,
      "ĠCloud": 4396,
      "olt": 4397,
      "Ġblocks": 4398,
      "ĠPut": 4399,
      "NOT": 4400,
      "oft": 4401,
      "Track": 4402,
      "ĠEnd": 4403,
      "ĠSibTr": 4404,
      "Ġĉĉĉĉ": 4405,
      "project": 4406,
      "Ġpointer": 4407,
      "mail": 4408,
      "Ġprototype": 4409,
      "Engine": 4410,
      "Art": 4411,
      "close": 4412,
      "dist": 4413,
      "Ġpacket": 4414,
      "END": 4415,
      "Sort": 4416,
      "imer": 4417,
      "Ġextensions": 4418,
      "Member": 4419,
      "Pack": 4420,
      "Ġselection": 4421,
      "Ġcr": 4422,
      "vas": 4423,
      "sets": 4424,
      "Ġcommerce": 4425,
      "Ġdefine": 4426,
      "Ġ'_'": 4427,
      "================================": 4428,
      "ASE": 4429,
      "px": 4430,
      "ocation": 4431,
      "Xml": 4432,
      "Ġexclude": 4433,
      "ĠtoArray": 4434,
      "Initial": 4435,
      "After": 4436,
      "ĠIS": 4437,
      "><": 4438,
      "Ġsnapshot": 4439,
      "Ġcalling": 4440,
      "ĠView": 4441,
      "!\"": 4442,
      "etermin": 4443,
      "ĠLoad": 4444,
      "Could": 4445,
      "Admin": 4446,
      "Ġmag": 4447,
      "Ġcredentials": 4448,
      "63": 4449,
      "zip": 4450,
      "Ġ{$": 4451,
      "Ġfire": 4452,
      "Ġformatter": 4453,
      "ĠBig": 4454,
      "mask": 4455,
      "Ġgenerator": 4456,
      "Category": 4457,
      "ĠApi": 4458,
      "ĠcharAt": 4459,
      "Ġrefresh": 4460,
      "Ġdev": 4461,
      "Ġscore": 4462,
      "Ġremaining": 4463,
      "FT": 4464,
      "td": 4465,
      "Paths": 4466,
      "Ġfeatures": 4467,
      "property": 4468,
      "Comment": 4469,
      "ĠServiceResponse": 4470,
      "Ġimplementation": 4471,
      "Ġserialize": 4472,
      "ops": 4473,
      "ccept": 4474,
      "SSION": 4475,
      "hook": 4476,
      "ĠSimple": 4477,
      "Rules": 4478,
      "remove": 4479,
      "ĠCan": 4480,
      "paths": 4481,
      "left": 4482,
      "errupt": 4483,
      "udio": 4484,
      "imes": 4485,
      "Ġmost": 4486,
      "hs": 4487,
      "FC": 4488,
      "Ġexpect": 4489,
      "gb": 4490,
      "ke": 4491,
      "ively": 4492,
      "ffic": 4493,
      "ĠNow": 4494,
      "ĠAmazon": 4495,
      "ness": 4496,
      "Batch": 4497,
      "ĠIterator": 4498,
      "entic": 4499,
      "show": 4500,
      "Ġli": 4501,
      "alled": 4502,
      "LL": 4503,
      "ideo": 4504,
      "holder": 4505,
      "ĠgetA": 4506,
      "gen": 4507,
      "Ġcoll": 4508,
      ".*": 4509,
      "Success": 4510,
      "Ġwords": 4511,
      "RECT": 4512,
      "Ġchr": 4513,
      "Ġstderr": 4514,
      "Cannot": 4515,
      "Ġadapter": 4516,
      "Ġlif": 4517,
      "ĠET": 4518,
      "Ġrc": 4519,
      "Ġleast": 4520,
      "gt": 4521,
      "Integer": 4522,
      "requ": 4523,
      "vals": 4524,
      "Strategy": 4525,
      "ilt": 4526,
      "mag": 4527,
      "https": 4528,
      "Ġstandard": 4529,
      "ison": 4530,
      "valu": 4531,
      "checked": 4532,
      "Ġupdates": 4533,
      "Socket": 4534,
      "ivery": 4535,
      "asic": 4536,
      "DIR": 4537,
      "timeout": 4538,
      "adoc": 4539,
      "Ġinputs": 4540,
      "Ġindic": 4541,
      "Ġexpand": 4542,
      "Ġavoid": 4543,
      "Ġqual": 4544,
      "Volume": 4545,
      "Ġmatcher": 4546,
      "ĠProtocol": 4547,
      "Ġspan": 4548,
      "struction": 4549,
      "SEPARATOR": 4550,
      "Ġcurrently": 4551,
      "ĠMAX": 4552,
      "Ġleg": 4553,
      "ĠYou": 4554,
      "Ġuid": 4555,
      "Ġsn": 4556,
      "ĠLevel": 4557,
      "att": 4558,
      "SL": 4559,
      "ocus": 4560,
      "Ġ255": 4561,
      "ĠVar": 4562,
      "FIX": 4563,
      "ĠhasNext": 4564,
      "'re": 4565,
      "MP": 4566,
      "rypted": 4567,
      "Snapshot": 4568,
      "Ġdum": 4569,
      "Ifc": 4570,
      "ĠFROM": 4571,
      "Join": 4572,
      "Ġnecessary": 4573,
      "SIZE": 4574,
      "Modified": 4575,
      "Layer": 4576,
      "DF": 4577,
      "ecycle": 4578,
      "Remov": 4579,
      "Ġsupplied": 4580,
      "aim": 4581,
      "Ġspecial": 4582,
      "Rout": 4583,
      "Depend": 4584,
      "Ġ\".\"": 4585,
      "ĠCore": 4586,
      "Ġlow": 4587,
      "Ġexecution": 4588,
      "attribute": 4589,
      "Ġinject": 4590,
      "Ġwere": 4591,
      "Ġtasks": 4592,
      "ĠdefaultValue": 4593,
      "DATE": 4594,
      "Feature": 4595,
      "CS": 4596,
      "Mapper": 4597,
      "ĠSuppress": 4598,
      "Menu": 4599,
      "Insert": 4600,
      "faces": 4601,
      "Ġimages": 4602,
      "ĠAct": 4603,
      "Ġcalculate": 4604,
      "Close": 4605,
      "Ġtables": 4606,
      "esh": 4607,
      "Ġdeep": 4608,
      "Widget": 4609,
      "arm": 4610,
      "ĠSchema": 4611,
      "ĠfilePath": 4612,
      "incip": 4613,
      "Ġretrieve": 4614,
      "role": 4615,
      "icro": 4616,
      "Ġcenter": 4617,
      "OS": 4618,
      "edit": 4619,
      "Ġcause": 4620,
      "ĠRed": 4621,
      "Ġ'@": 4622,
      "_'": 4623,
      "Ġdelay": 4624,
      "Generate": 4625,
      "safe": 4626,
      "Ġpad": 4627,
      "Arguments": 4628,
      "ĠPRO": 4629,
      "03": 4630,
      "account": 4631,
      "OutputStream": 4632,
      "Ġrouter": 4633,
      "Ġpending": 4634,
      "Matrix": 4635,
      "Ġconditions": 4636,
      "bro": 4637,
      "ressed": 4638,
      "ĠMatch": 4639,
      "Ġresolved": 4640,
      "Ġperm": 4641,
      "Ġord": 4642,
      "cording": 4643,
      "ne": 4644,
      "ĠresourceGroupName": 4645,
      "conn": 4646,
      "alyz": 4647,
      "Ġ11": 4648,
      "Before": 4649,
      "groups": 4650,
      "Ġnorm": 4651,
      "component": 4652,
      "Ġbar": 4653,
      "Ġshift": 4654,
      "ĠPARAM": 4655,
      "Ġcorresponding": 4656,
      "Ġdump": 4657,
      "Prop": 4658,
      "ĠConfiguration": 4659,
      "graph": 4660,
      "send": 4661,
      "Ġ\"$": 4662,
      "ĠHandler": 4663,
      "Cap": 4664,
      "olders": 4665,
      "Edit": 4666,
      "Me": 4667,
      "Driver": 4668,
      "sql": 4669,
      "Core": 4670,
      "Ġyet": 4671,
      "):": 4672,
      "ĠOther": 4673,
      "Ġiv": 4674,
      "pings": 4675,
      "ology": 4676,
      "ĠApp": 4677,
      "Flag": 4678,
      "Ġlisteners": 4679,
      "ALSE": 4680,
      "Ġdays": 4681,
      "Ġclick": 4682,
      "resources": 4683,
      "TIME": 4684,
      "ALL": 4685,
      "ĠPoint": 4686,
      "Ġexcl": 4687,
      "job": 4688,
      "Ġpages": 4689,
      "nodes": 4690,
      "Ġtrain": 4691,
      "Ġuses": 4692,
      "Ġflow": 4693,
      "Ġslot": 4694,
      "></": 4695,
      "Ġmeans": 4696,
      "Ġĉĉĉ": 4697,
      "eme": 4698,
      "vars": 4699,
      "77": 4700,
      "classes": 4701,
      "Ġpartial": 4702,
      "ĠDOM": 4703,
      "Are": 4704,
      "Encoding": 4705,
      "ĠCUR": 4706,
      "ĠPy": 4707,
      "onom": 4708,
      "Test": 4709,
      "Objects": 4710,
      "Ġ15": 4711,
      "Methods": 4712,
      "(\\": 4713,
      "USER": 4714,
      "Ġglob": 4715,
      "Ġlinks": 4716,
      "results": 4717,
      "required": 4718,
      "Certificate": 4719,
      "find": 4720,
      "Ġnote": 4721,
      "ANCE": 4722,
      "Float": 4723,
      "Ġembed": 4724,
      "ĠAss": 4725,
      "Right": 4726,
      "Rate": 4727,
      "man": 4728,
      "Ġpatch": 4729,
      "ĠsetAttribute": 4730,
      "ygon": 4731,
      "ĠUT": 4732,
      "Summary": 4733,
      "parison": 4734,
      "ĠgetUser": 4735,
      "Ġtransport": 4736,
      "Ġsom": 4737,
      "properties": 4738,
      "Ġlin": 4739,
      "QUEST": 4740,
      "Orig": 4741,
      "Expr": 4742,
      "category": 4743,
      "Ġsq": 4744,
      "Servlet": 4745,
      "Ġfeed": 4746,
      "Cms": 4747,
      "Ġbrowser": 4748,
      "ws": 4749,
      "Ġprotected": 4750,
      "oding": 4751,
      "Ġ60": 4752,
      "ĠColumn": 4753,
      "Ġ'\"'": 4754,
      "Save": 4755,
      "Cle": 4756,
      "bin": 4757,
      "emon": 4758,
      "helper": 4759,
      "aunch": 4760,
      "Attach": 4761,
      "PUT": 4762,
      "35": 4763,
      "Ġnested": 4764,
      "Ġconsumer": 4765,
      "ĠĠĠĠĠĠĠĠĠĠĠĠĠĠĠĠĠĠĠĠĠĠĠĠĠĠĠĠĠĠĠĠ": 4766,
      "Ġalloc": 4767,
      "success": 4768,
      "Ġtile": 4769,
      "onical": 4770,
      "FileName": 4771,
      "WithContext": 4772,
      "ood": 4773,
      "ĠgetE": 4774,
      "ĠtableName": 4775,
      "allel": 4776,
      "Upload": 4777,
      "mount": 4778,
      "Rece": 4779,
      "peat": 4780,
      "ĠSuppressWarnings": 4781,
      "Public": 4782,
      "ĠQu": 4783,
      "egate": 4784,
      "merce": 4785,
      "Exist": 4786,
      "lector": 4787,
      "Ġschedule": 4788,
      "Counter": 4789,
      "Ġpi": 4790,
      "Ġmail": 4791,
      "Ġimplements": 4792,
      "addr": 4793,
      "Ġtranslation": 4794,
      "Ġblob": 4795,
      "Ġcompat": 4796,
      "Ġfast": 4797,
      "Ġexceptions": 4798,
      "Ġplugins": 4799,
      "Ġspecify": 4800,
      "lat": 4801,
      "Bl": 4802,
      "SELECT": 4803,
      "ĠNext": 4804,
      "avadoc": 4805,
      "ather": 4806,
      "ares": 4807,
      "sm": 4808,
      "Raw": 4809,
      "Ġprodu": 4810,
      "my": 4811,
      "Ġcast": 4812,
      "covery": 4813,
      "Millis": 4814,
      "dius": 4815,
      "src": 4816,
      "uted": 4817,
      "Classes": 4818,
      "bot": 4819,
      "Report": 4820,
      "schema": 4821,
      "ĠDuration": 4822,
      "ĠBe": 4823,
      "created": 4824,
      "Ġmight": 4825,
      "ĠAll": 4826,
      "BUG": 4827,
      "Vert": 4828,
      "ĠgetDefault": 4829,
      "URE": 4830,
      "Ġadds": 4831,
      "Ġinside": 4832,
      "Ġmembers": 4833,
      "Ġmat": 4834,
      "Ġboot": 4835,
      "udit": 4836,
      "sole": 4837,
      "ĠMessages": 4838,
      "Ġdecor": 4839,
      "fr": 4840,
      "Missing": 4841,
      "LOG": 4842,
      "Ġfree": 4843,
      "Calcul": 4844,
      "Ġfit": 4845,
      "Ġknown": 4846,
      "Ġmatched": 4847,
      "60": 4848,
      "ponses": 4849,
      "havior": 4850,
      "Over": 4851,
      "ĠWHERE": 4852,
      "uilt": 4853,
      "Ġder": 4854,
      "Ġhy": 4855,
      "Ġcharset": 4856,
      "cli": 4857,
      "Ġeditor": 4858,
      "Ġstill": 4859,
      "Ġweek": 4860,
      "register": 4861,
      "Ġtake": 4862,
      "Ġpd": 4863,
      "Ġsing": 4864,
      "weight": 4865,
      "ĠIfc": 4866,
      "shape": 4867,
      ";\"": 4868,
      "ĠOR": 4869,
      "HTML": 4870,
      "Ġ~": 4871,
      "Ġconstruct": 4872,
      "unit": 4873,
      "Unknown": 4874,
      "web": 4875,
      "caling": 4876,
      "ents": 4877,
      "Constraints": 4878,
      "Ġsubmit": 4879,
      "nd": 4880,
      "ui": 4881,
      "Ġbasename": 4882,
      "DATA": 4883,
      "ĠThread": 4884,
      "Ġtoo": 4885,
      "Ġalgorithm": 4886,
      "scope": 4887,
      "Ġaccording": 4888,
      "Ġside": 4889,
      "axis": 4890,
      "Ġlatest": 4891,
      "Ġmime": 4892,
      "ĠHost": 4893,
      "Ġcaller": 4894,
      "ube": 4895,
      "conv": 4896,
      "Short": 4897,
      "/\"": 4898,
      "?'": 4899,
      "Ġroles": 4900,
      "logger": 4901,
      "ĠTree": 4902,
      "Ġmb": 4903,
      "Ġdependency": 4904,
      "actions": 4905,
      "Ġmany": 4906,
      "Dig": 4907,
      "ĠisValid": 4908,
      "ookup": 4909,
      "Assign": 4910,
      "avig": 4911,
      "Ġroutes": 4912,
      "Writ": 4913,
      "Ġquot": 4914,
      "Ġsubscription": 4915,
      "Ġsummary": 4916,
      "Ġrect": 4917,
      "ĠmethodName": 4918,
      "Ġhandlers": 4919,
      "erved": 4920,
      "Timestamp": 4921,
      "Ġzeros": 4922,
      "language": 4923,
      "dec": 4924,
      "Ġreject": 4925,
      "Pointer": 4926,
      "Ġhistory": 4927,
      "ART": 4928,
      "Ġprocessing": 4929,
      "alias": 4930,
      "FS": 4931,
      "Ġkeyword": 4932,
      "ĠYii": 4933,
      "ĠFALSE": 4934,
      "COL": 4935,
      "lang": 4936,
      "namespace": 4937,
      "/{": 4938,
      "split": 4939,
      "Ġ'__": 4940,
      "omatic": 4941,
      "Ġcli": 4942,
      "eer": 4943,
      "Ġcertificate": 4944,
      "Ġws": 4945,
      "Ġcc": 4946,
      "Stop": 4947,
      "ĠGP": 4948,
      "orig": 4949,
      "Ġdescriptor": 4950,
      "pattern": 4951,
      "opts": 4952,
      "Ġown": 4953,
      "Ġconstraint": 4954,
      "Ġformatted": 4955,
      "Site": 4956,
      "Ġpixel": 4957,
      "El": 4958,
      "Ġslug": 4959,
      "NG": 4960,
      "cheduler": 4961,
      "rv": 4962,
      "total": 4963,
      "chor": 4964,
      "Auto": 4965,
      "ough": 4966,
      "Ġabsolute": 4967,
      "Ġdimension": 4968,
      "ĠstartsWith": 4969,
      "'\"": 4970,
      "Ġunits": 4971,
      "Ġbounds": 4972,
      "iling": 4973,
      "posite": 4974,
      "orter": 4975,
      "Extract": 4976,
      "Ġduplic": 4977,
      "ĠGET": 4978,
      "Ġcreating": 4979,
      "Ġchart": 4980,
      "Ġscalar": 4981,
      "Ġduring": 4982,
      "FORM": 4983,
      "Rol": 4984,
      "Ġsuccessfully": 4985,
      "Det": 4986,
      "Ġcos": 4987,
      "imate": 4988,
      "scribe": 4989,
      "Perform": 4990,
      "Ġrequires": 4991,
      "Ġpadding": 4992,
      "Ġrate": 4993,
      "ĠStore": 4994,
      "Ġplan": 4995,
      "paces": 4996,
      "ĠgetString": 4997,
      "ĠSource": 4998,
      "ĠKeyError": 4999,
      "Stat": 5000,
      "Ġes": 5001,
      "Multi": 5002,
      "Ġcm": 5003,
      "ĠHandle": 5004,
      "Fetch": 5005,
      "Ġtheme": 5006,
      "CHE": 5007,
      "ĠBuilder": 5008,
      "Ġseed": 5009,
      "Import": 5010,
      "Ġcho": 5011,
      "pressions": 5012,
      "Bag": 5013,
      "Dict": 5014,
      "raft": 5015,
      "ĠAccess": 5016,
      "CL": 5017,
      "Vector": 5018,
      "ĠUN": 5019,
      "shop": 5020,
      "********************************": 5021,
      "egin": 5022,
      "Ġstarting": 5023,
      "Ġvirtual": 5024,
      "imitive": 5025,
      "34": 5026,
      "Period": 5027,
      "Ġmk": 5028,
      "itions": 5029,
      "Ġdependencies": 5030,
      "ĠgetField": 5031,
      "ifies": 5032,
      "Changed": 5033,
      "256": 5034,
      "ĠTemplate": 5035,
      "area": 5036,
      "ĠInputStream": 5037,
      "azy": 5038,
      "Ġresolver": 5039,
      "profile": 5040,
      "Permission": 5041,
      "Allowed": 5042,
      "Ġele": 5043,
      "erms": 5044,
      "Ġ14": 5045,
      "Arn": 5046,
      "Props": 5047,
      "Ins": 5048,
      "Mult": 5049,
      "Ġsix": 5050,
      "Ġcloud": 5051,
      "Ġarchive": 5052,
      "username": 5053,
      "ention": 5054,
      "Ġknow": 5055,
      "Ġsur": 5056,
      "Ġhandling": 5057,
      "Messages": 5058,
      "ĠRecord": 5059,
      "StateException": 5060,
      "Ġdid": 5061,
      "HT": 5062,
      "VALID": 5063,
      "ĠcontentType": 5064,
      "cade": 5065,
      "Ġnotify": 5066,
      "ĠArgument": 5067,
      "Ġconfigure": 5068,
      "OUT": 5069,
      "ĠgetResource": 5070,
      "Ġgit": 5071,
      "Converter": 5072,
      "Ġquestion": 5073,
      "Formatter": 5074,
      "fos": 5075,
      "ilities": 5076,
      "ium": 5077,
      "incipal": 5078,
      "Ġreceived": 5079,
      "Full": 5080,
      "Ġdr": 5081,
      "30": 5082,
      "Ġnothing": 5083,
      "std": 5084,
      "Ġbinding": 5085,
      "policy": 5086,
      "ĠOptions": 5087,
      "tn": 5088,
      "ĠgetParent": 5089,
      "ĠExample": 5090,
      "Ġarea": 5091,
      "eletes": 5092,
      "CR": 5093,
      "Flags": 5094,
      "=%": 5095,
      "DateTime": 5096,
      "Sep": 5097,
      "ĠOnly": 5098,
      "light": 5099,
      "Ġmet": 5100,
      "Sql": 5101,
      "Ġsepar": 5102,
      "IDs": 5103,
      "Ġforward": 5104,
      "Ġfiltered": 5105,
      "NLS": 5106,
      "Ġauthentication": 5107,
      "Print": 5108,
      "Ġpromise": 5109,
      "ĠJava": 5110,
      "tc": 5111,
      "columns": 5112,
      "abs": 5113,
      "Ġbackup": 5114,
      "imation": 5115,
      "Ġshared": 5116,
      "olicies": 5117,
      "Ġgl": 5118,
      "CESS": 5119,
      "pop": 5120,
      "Updates": 5121,
      "Ġdirectly": 5122,
      "Ġrepresenting": 5123,
      "!'": 5124,
      "Associ": 5125,
      "Validator": 5126,
      "IS": 5127,
      "ĠNetwork": 5128,
      "trace": 5129,
      "ĠDatabase": 5130,
      "ĠStop": 5131,
      "ById": 5132,
      "Dist": 5133,
      "ATUS": 5134,
      "LOPT": 5135,
      "precated": 5136,
      "Ġlater": 5137,
      "apture": 5138,
      "Dat": 5139,
      "Ġentities": 5140,
      "rate": 5141,
      "icense": 5142,
      "ĠVAL": 5143,
      "Ġtempor": 5144,
      "Ġapprop": 5145,
      "mutable": 5146,
      "Price": 5147,
      "ierarch": 5148,
      "directory": 5149,
      "cut": 5150,
      "TEXT": 5151,
      "Ġjav": 5152,
      ")\\": 5153,
      "ĠgetContent": 5154,
      "Ġsegments": 5155,
      "cision": 5156,
      "Tokens": 5157,
      "Ġ\"[": 5158,
      "UTF": 5159,
      "Global": 5160,
      "oo": 5161,
      "ival": 5162,
      "methods": 5163,
      "Processor": 5164,
      "Region": 5165,
      "Ġfailure": 5166,
      "ĠSearch": 5167,
      "Ġpartic": 5168,
      "Remote": 5169,
      "trl": 5170,
      "lict": 5171,
      "Ġappropri": 5172,
      "ately": 5173,
      "Ġgre": 5174,
      "ĠgetCurrent": 5175,
      "dn": 5176,
      "Ġisn": 5177,
      "Ġ64": 5178,
      "ĠRoute": 5179,
      "ĠInstance": 5180,
      "ĠCP": 5181,
      "leton": 5182,
      "Ġ'&": 5183,
      "Ġpayment": 5184,
      "network": 5185,
      "Ġbr": 5186,
      "\"'": 5187,
      "Rest": 5188,
      "=\\\"": 5189,
      "Bar": 5190,
      "alancer": 5191,
      "ELD": 5192,
      "84": 5193,
      "Ġfd": 5194,
      "ĠJavadoc": 5195,
      "Ġ30": 5196,
      "Gateway": 5197,
      "Ġsaved": 5198,
      "Ġhostname": 5199,
      "Ġgoogle": 5200,
      "help": 5201,
      "Ġss": 5202,
      "ĠWhen": 5203,
      "Ġprocessed": 5204,
      "after": 5205,
      "dev": 5206,
      "Secret": 5207,
      "ething": 5208,
      "Ġprovid": 5209,
      "Ġgeneric": 5210,
      "itespace": 5211,
      "css": 5212,
      "Ġoptim": 5213,
      "Ġ'='": 5214,
      "Connect": 5215,
      "Ġsamples": 5216,
      "Ġrestore": 5217,
      "Ġut": 5218,
      "ĠNOTE": 5219,
      "RECTORY": 5220,
      "Ġretval": 5221,
      "grid": 5222,
      "stit": 5223,
      "Ġminimum": 5224,
      "Dim": 5225,
      "Ġtool": 5226,
      "endor": 5227,
      "Ġmachine": 5228,
      "brocade": 5229,
      "Ġchars": 5230,
      "Ġedges": 5231,
      "Ġrelationship": 5232,
      "SA": 5233,
      "Watch": 5234,
      "ĠStorage": 5235,
      "FIG": 5236,
      "CLASS": 5237,
      "Ġ\"--": 5238,
      "opes": 5239,
      "UND": 5240,
      "anit": 5241,
      "Ġless": 5242,
      "argin": 5243,
      "Ġversions": 5244,
      "ĠConstants": 5245,
      "numeric": 5246,
      "Failure": 5247,
      "Ġda": 5248,
      "Flow": 5249,
      "Binding": 5250,
      "Ġcountry": 5251,
      "Ġunicode": 5252,
      "Ġvertex": 5253,
      "main": 5254,
      "AY": 5255,
      "He": 5256,
      "ulk": 5257,
      "/%": 5258,
      "plies": 5259,
      "Ġconsider": 5260,
      "Ġargv": 5261,
      "Where": 5262,
      "Ptr": 5263,
      "Ġsmall": 5264,
      "Double": 5265,
      "ĠEnv": 5266,
      "ĠAddress": 5267,
      "Available": 5268,
      "Total": 5269,
      "Ġcard": 5270,
      "Ġ'[": 5271,
      "ĠOtherwise": 5272,
      "Ip": 5273,
      "Ġcompiler": 5274,
      "Ġlex": 5275,
      "ĠNames": 5276,
      "METH": 5277,
      "ĠorderBy": 5278,
      "xx": 5279,
      "DEFAULT": 5280,
      "Single": 5281,
      "Ġ'\\\\'": 5282,
      "umul": 5283,
      "AA": 5284,
      "Section": 5285,
      "uc": 5286,
      "ĠLabel": 5287,
      "ceed": 5288,
      "Execute": 5289,
      "trim": 5290,
      "Ġangle": 5291,
      "86": 5292,
      "secon": 5293,
      "ĠInter": 5294,
      "Ġoperations": 5295,
      "stats": 5296,
      "xff": 5297,
      "ĠCURLOPT": 5298,
      "Ġfname": 5299,
      "=\"'": 5300,
      "Ġuseful": 5301,
      "Ġeval": 5302,
      "batch": 5303,
      "JECT": 5304,
      "Ġcomput": 5305,
      "Ġ'*'": 5306,
      "ĠChannel": 5307,
      "ysql": 5308,
      "Ġprevent": 5309,
      "hip": 5310,
      "ĠKEY": 5311,
      "rees": 5312,
      "Ġlibrary": 5313,
      "Ġagainst": 5314,
      "BO": 5315,
      "Ġgeometry": 5316,
      "Ġ??": 5317,
      "Ġmac": 5318,
      ":%": 5319,
      "Ġtax": 5320,
      "UNT": 5321,
      "ones": 5322,
      "Ġkw": 5323,
      "27": 5324,
      "Dispatch": 5325,
      "Duration": 5326,
      "METHOD": 5327,
      "sw": 5328,
      "Ġsleep": 5329,
      "acing": 5330,
      "oriz": 5331,
      "has": 5332,
      ">\\": 5333,
      "Ġinspect": 5334,
      "Symbol": 5335,
      "labels": 5336,
      "Ġbasic": 5337,
      "Ġproper": 5338,
      "aving": 5339,
      "21": 5340,
      "Ġflatten": 5341,
      "Ġ19": 5342,
      "Ġserialized": 5343,
      "Ġmount": 5344,
      "rule": 5345,
      "Ġnd": 5346,
      "Ġcols": 5347,
      "Ġthose": 5348,
      "ale": 5349,
      "oder": 5350,
      "Ġreferences": 5351,
      "Ġarrays": 5352,
      "ca": 5353,
      "IVE": 5354,
      "ĠAS": 5355,
      "Ġhist": 5356,
      "Usage": 5357,
      "Login": 5358,
      "Filename": 5359,
      "Ġallows": 5360,
      "Instances": 5361,
      "Ġlv": 5362,
      "writ": 5363,
      "ĠeZ": 5364,
      "Plan": 5365,
      "Ġ$$": 5366,
      "Ġsin": 5367,
      "Direct": 5368,
      "Information": 5369,
      "UI": 5370,
      "ĠExpression": 5371,
      "Fn": 5372,
      "Ġmarker": 5373,
      "Signature": 5374,
      "ĠĠĠĠĠĠĠĠĠĠĠĠĠĠĠĠĠ": 5375,
      "Ġweights": 5376,
      "ĠLine": 5377,
      "Ġ[]": 5378,
      "transl": 5379,
      "ĠLE": 5380,
      "Ġconstant": 5381,
      "Ġsym": 5382,
      "ĠTRUE": 5383,
      "Ġmerged": 5384,
      "ĠSplit": 5385,
      "Ġdatas": 5386,
      "invalid": 5387,
      "Ġcontact": 5388,
      "ookies": 5389,
      "olve": 5390,
      "button": 5391,
      "yntax": 5392,
      "ĠReader": 5393,
      "Hook": 5394,
      "ĠparseInt": 5395,
      "Metric": 5396,
      "ĠĠĠĠĠĠĠĠĠĠĠĠĠĠĠĠĠĠĠĠ": 5397,
      "ITE": 5398,
      "arr": 5399,
      "Entries": 5400,
      "Coord": 5401,
      "Ġprogram": 5402,
      "Ġdigest": 5403,
      "ridge": 5404,
      "Ġpur": 5405,
      "ampa": 5406,
      "NE": 5407,
      "ales": 5408,
      "ongo": 5409,
      "Ġfact": 5410,
      "ĠĠĠĠĠĠĠĠĠĠĠ": 5411,
      "Ġbackground": 5412,
      "diff": 5413,
      "menu": 5414,
      "ampaign": 5415,
      "Ġmock": 5416,
      "display": 5417,
      "Ġproc": 5418,
      "Media": 5419,
      "ĠProject": 5420,
      "mult": 5421,
      "Filters": 5422,
      "ĠCOM": 5423,
      "rong": 5424,
      "install": 5425,
      "Ġeffect": 5426,
      "ĠComp": 5427,
      "ĠaddAll": 5428,
      "alpha": 5429,
      "ĠHtml": 5430,
      "Ġsending": 5431,
      "ters": 5432,
      "ĠRegister": 5433,
      "ĠSw": 5434,
      "ĠComponent": 5435,
      "seq": 5436,
      "Ġvariant": 5437,
      "ĠRegistry": 5438,
      "ĠisArray": 5439,
      "ease": 5440,
      "Ġtimer": 5441,
      "Ġwalk": 5442,
      "anguages": 5443,
      "ĠMin": 5444,
      "Month": 5445,
      "Ġbig": 5446,
      "iration": 5447,
      "icker": 5448,
      "elist": 5449,
      "ĠFloat": 5450,
      "Ġplt": 5451,
      "ĠAssert": 5452,
      "rs": 5453,
      "ĠInv": 5454,
      "Ġignored": 5455,
      "Ġeven": 5456,
      "document": 5457,
      "CRE": 5458,
      "Ġreduce": 5459,
      "Own": 5460,
      "Cert": 5461,
      "Ġcurrency": 5462,
      "Ġreflection": 5463,
      "Such": 5464,
      "pk": 5465,
      "pass": 5466,
      "ĠDO": 5467,
      "ĠScope": 5468,
      "Ġbottom": 5469,
      "ĠpropertyName": 5470,
      "utils": 5471,
      "ĠPrintln": 5472,
      "Ġenviron": 5473,
      "Ġawserr": 5474,
      "ĠERROR": 5475,
      "Opts": 5476,
      "ĠIllegalStateException": 5477,
      "Ġsep": 5478,
      "ĠSubElement": 5479,
      "Wait": 5480,
      "Ġfragment": 5481,
      "88": 5482,
      "ADER": 5483,
      "Area": 5484,
      "ĠPOST": 5485,
      "rypto": 5486,
      "Uint": 5487,
      "relation": 5488,
      "des": 5489,
      "Ġstrict": 5490,
      "Progress": 5491,
      "Ġwell": 5492,
      "Ġstates": 5493,
      "Environment": 5494,
      "ĠAg": 5495,
      "}.": 5496,
      "ĠWriter": 5497,
      "ĠParameter": 5498,
      "Ġfixed": 5499,
      "Ġcandidate": 5500,
      "IF": 5501,
      "ĠAny": 5502,
      "Buf": 5503,
      "Ġincrement": 5504,
      "Ġappropriate": 5505,
      "Normal": 5506,
      "Boolean": 5507,
      "timestamp": 5508,
      "Encode": 5509,
      "True": 5510,
      "IST": 5511,
      "tty": 5512,
      "Ġcoordinates": 5513,
      "ĠgetAll": 5514,
      "Ġexplicit": 5515,
      "################": 5516,
      "ServiceResponse": 5517,
      "Ġscreen": 5518,
      "REQUEST": 5519,
      "39": 5520,
      "Split": 5521,
      "coming": 5522,
      "Ġforeign": 5523,
      "ĠsetValue": 5524,
      "Ġmapped": 5525,
      "roker": 5526,
      "Ġetc": 5527,
      "DC": 5528,
      "Ġep": 5529,
      "Ġtakes": 5530,
      "empty": 5531,
      "Ġscroll": 5532,
      "upd": 5533,
      "ĠApply": 5534,
      "MA": 5535,
      "Ġkernel": 5536,
      "Panel": 5537,
      "TY": 5538,
      "Ġtemplates": 5539,
      "29": 5540,
      "Owner": 5541,
      "ĠCalendar": 5542,
      "redicate": 5543,
      "lay": 5544,
      "Ġden": 5545,
      "Ġdestroy": 5546,
      "route": 5547,
      "collection": 5548,
      "*/": 5549,
      "Ġsources": 5550,
      "Ġpercent": 5551,
      "ula": 5552,
      "ogram": 5553,
      "Icon": 5554,
      "Vars": 5555,
      "IgnoreCase": 5556,
      "idual": 5557,
      "26": 5558,
      "Comparator": 5559,
      "roid": 5560,
      "ĠgetRe": 5561,
      "UUID": 5562,
      "ĠColor": 5563,
      "side": 5564,
      "Ġexact": 5565,
      "course": 5566,
      "uss": 5567,
      "Setting": 5568,
      "desc": 5569,
      "Ġbad": 5570,
      "Ġgets": 5571,
      "CODE": 5572,
      "Ġthreshold": 5573,
      "Ġpairs": 5574,
      "ĠgetParameter": 5575,
      "Runtime": 5576,
      "users": 5577,
      "Ġfactor": 5578,
      "Chunk": 5579,
      "Commit": 5580,
      ":\\": 5581,
      "Has": 5582,
      "Listeners": 5583,
      "ĠCluster": 5584,
      "epCopy": 5585,
      "<!": 5586,
      "Scale": 5587,
      "Ġrev": 5588,
      "ĠVector": 5589,
      "Ġcover": 5590,
      "www": 5591,
      "Operator": 5592,
      "Year": 5593,
      "Many": 5594,
      "ULE": 5595,
      "Ġindexes": 5596,
      "ĠCOL": 5597,
      "FilePath": 5598,
      "Ġwarnings": 5599,
      "Ġnumbers": 5600,
      "ĠGraph": 5601,
      "WithServiceResponse": 5602,
      "WithServiceResponseAsync": 5603,
      "Ġlar": 5604,
      "Ġrand": 5605,
      "dig": 5606,
      "poser": 5607,
      "74": 5608,
      "folder": 5609,
      "package": 5610,
      "ilar": 5611,
      "Ġmodify": 5612,
      "WOR": 5613,
      "'ll": 5614,
      "Ġprovide": 5615,
      "ĠPost": 5616,
      "Ġannotations": 5617,
      "lt": 5618,
      "XX": 5619,
      "Ġdeser": 5620,
      "();": 5621,
      "Ġhap": 5622,
      "History": 5623,
      "come": 5624,
      "like": 5625,
      "Ġ|=": 5626,
      "rammar": 5627,
      "Qual": 5628,
      "agent": 5629,
      "LowerCase": 5630,
      "ĠCopy": 5631,
      "velope": 5632,
      "Ġrv": 5633,
      "Ġpub": 5634,
      "ĠHEAP": 5635,
      "Points": 5636,
      "anagement": 5637,
      "ĠgetTable": 5638,
      "chain": 5639,
      "Ġnormalized": 5640,
      "Ġpredicate": 5641,
      "stat": 5642,
      "Ġmanifest": 5643,
      "identifier": 5644,
      "tmp": 5645,
      "aries": 5646,
      "ĠArrays": 5647,
      "rase": 5648,
      "defin": 5649,
      "Rec": 5650,
      "ĠgetOption": 5651,
      "ĠBody": 5652,
      "Metrics": 5653,
      "Ġdelimiter": 5654,
      "Annotations": 5655,
      "proxy": 5656,
      "Ġwin": 5657,
      "ĠCommon": 5658,
      "float": 5659,
      "medi": 5660,
      "Tab": 5661,
      "validate": 5662,
      "requency": 5663,
      "Lib": 5664,
      "WN": 5665,
      "import": 5666,
      "matrix": 5667,
      "window": 5668,
      "Man": 5669,
      "iment": 5670,
      "lint": 5671,
      "Ġissue": 5672,
      "Ġdisabled": 5673,
      "xis": 5674,
      "ĠEX": 5675,
      "Services": 5676,
      "Kind": 5677,
      "Ġcomments": 5678,
      "signed": 5679,
      "seg": 5680,
      "stop": 5681,
      "verage": 5682,
      "Destination": 5683,
      "ĠValidation": 5684,
      "ĠReflection": 5685,
      "Ġcalendar": 5686,
      "Ġstyles": 5687,
      "save": 5688,
      "Ġalign": 5689,
      "Ġrenderer": 5690,
      "Ġct": 5691,
      "Converts": 5692,
      "center": 5693,
      "Bounds": 5694,
      "Ġready": 5695,
      "ugg": 5696,
      "storage": 5697,
      "DD": 5698,
      "available": 5699,
      "Ġsqrt": 5700,
      "join": 5701,
      "comm": 5702,
      "STANCE": 5703,
      "OB": 5704,
      "ĠSI": 5705,
      "Show": 5706,
      "ĠDIRECTORY": 5707,
      "ands": 5708,
      "sect": 5709,
      "cest": 5710,
      "Font": 5711,
      "Ġbelow": 5712,
      "Ġoverr": 5713,
      "ĠXml": 5714,
      "Arr": 5715,
      "Pages": 5716,
      "])": 5717,
      "36": 5718,
      "Ġ<!": 5719,
      "EClass": 5720,
      "Ġabove": 5721,
      "ĠPer": 5722,
      "controller": 5723,
      "ĠcontainsKey": 5724,
      "Ġradius": 5725,
      "Implement": 5726,
      "URCE": 5727,
      "Ġactivity": 5728,
      "Replace": 5729,
      "Ġmov": 5730,
      "Ġshutdown": 5731,
      "coord": 5732,
      "pb": 5733,
      "force": 5734,
      "ctr": 5735,
      "Append": 5736,
      "ĠCollections": 5737,
      "raction": 5738,
      "ĠPDO": 5739,
      "Ġcolors": 5740,
      "Go": 5741,
      "plier": 5742,
      "false": 5743,
      "empt": 5744,
      "enabled": 5745,
      "Ġstarted": 5746,
      "semb": 5747,
      "long": 5748,
      "Decimal": 5749,
      "Ġchannels": 5750,
      "sv": 5751,
      "Protocol": 5752,
      "Ġ\",\"": 5753,
      "fetch": 5754,
      "aging": 5755,
      "abilities": 5756,
      "VERSION": 5757,
      "beta": 5758,
      "salt": 5759,
      "Ġstrconv": 5760,
      "dl": 5761,
      "ipart": 5762,
      "Lines": 5763,
      "eno": 5764,
      "Ġadjust": 5765,
      "Ġbus": 5766,
      "Retrieve": 5767,
      "inv": 5768,
      "Ġdimensions": 5769,
      "Ġinvok": 5770,
      "before": 5771,
      "]*": 5772,
      "Ġvals": 5773,
      "Ġtargets": 5774,
      "Bit": 5775,
      "font": 5776,
      "Ġ')'": 5777,
      "ĠStringUtils": 5778,
      "},": 5779,
      "Ġinteg": 5780,
      "Ġcontexts": 5781,
      "ĠFe": 5782,
      "ĠFirst": 5783,
      "Simple": 5784,
      "Ġreturning": 5785,
      "Locator": 5786,
      "the": 5787,
      "Static": 5788,
      "illing": 5789,
      "Ġpython": 5790,
      "Suffix": 5791,
      "trict": 5792,
      "Ġsender": 5793,
      "IFI": 5794,
      "Ġborder": 5795,
      "Mask": 5796,
      "upper": 5797,
      "Ġtail": 5798,
      "ĠCre": 5799,
      "Pod": 5800,
      "usive": 5801,
      "----------------------------------------------------------------": 5802,
      "Ġanswer": 5803,
      "STRING": 5804,
      "Ġwrapped": 5805,
      "Constraint": 5806,
      "loor": 5807,
      "ToString": 5808,
      "rf": 5809,
      "ildcard": 5810,
      "Ġparsing": 5811,
      "Equal": 5812,
      "Ġredis": 5813,
      "temp": 5814,
      "Ġmapper": 5815,
      "ceeded": 5816,
      "depend": 5817,
      "Ġpt": 5818,
      "login": 5819,
      "Ġshard": 5820,
      "mac": 5821,
      "Ġdock": 5822,
      "ĠNoSuch": 5823,
      "Ġroll": 5824,
      "(...": 5825,
      "Ġcomparison": 5826,
      "Ġmiddleware": 5827,
      "ients": 5828,
      "media": 5829,
      "txt": 5830,
      "interface": 5831,
      "Ġssl": 5832,
      "ĠappendChild": 5833,
      "\\.": 5834,
      "ĠPromise": 5835,
      "non": 5836,
      "wig": 5837,
      "ĠWait": 5838,
      "ends": 5839,
      "Ġconnected": 5840,
      "xf": 5841,
      "EOL": 5842,
      "Ġdeg": 5843,
      "UTH": 5844,
      "bsolute": 5845,
      "istic": 5846,
      "unchecked": 5847,
      "ĠVALUE": 5848,
      "Ġincluded": 5849,
      "Pol": 5850,
      "ĠKind": 5851,
      "Java": 5852,
      "Ġfac": 5853,
      "aut": 5854,
      "Ġadapt": 5855,
      "AV": 5856,
      "PS": 5857,
      "ATCH": 5858,
      "Ġautomatic": 5859,
      "anded": 5860,
      "Ġcam": 5861,
      "Ġ\"'\"": 5862,
      "Ġrecip": 5863,
      "scale": 5864,
      "Ġhappen": 5865,
      "ĠUUID": 5866,
      "Ġcipher": 5867,
      "peed": 5868,
      "Consumer": 5869,
      "ĠgetStatus": 5870,
      "Ġlead": 5871,
      "etype": 5872,
      "Ġpipeline": 5873,
      "Ġmt": 5874,
      "secret": 5875,
      "Ġinstalled": 5876,
      "75": 5877,
      "ĠSp": 5878,
      "RED": 5879,
      "arator": 5880,
      "Ġseen": 5881,
      "vance": 5882,
      "aterial": 5883,
      "ĠMarshal": 5884,
      "Ġattrib": 5885,
      "Ġcir": 5886,
      "GB": 5887,
      "Labels": 5888,
      "olution": 5889,
      "ĠMem": 5890,
      "scriber": 5891,
      "ĠWebAPI": 5892,
      "Ġsv": 5893,
      "antity": 5894,
      "Ab": 5895,
      "product": 5896,
      "Uuid": 5897,
      "Ġce": 5898,
      "={": 5899,
      "ctx": 5900,
      "Ġordered": 5901,
      "render": 5902,
      "Ġnever": 5903,
      "Ġrecursive": 5904,
      "Binary": 5905,
      "children": 5906,
      "Ġpackages": 5907,
      "09": 5908,
      "cap": 5909,
      "Ġrecover": 5910,
      "ByName": 5911,
      "Transfer": 5912,
      "ars": 5913,
      "ĠtoLowerCase": 5914,
      "Ġui": 5915,
      "ĠTarget": 5916,
      "Ġunknown": 5917,
      "ised": 5918,
      "losure": 5919,
      "ĠInfof": 5920,
      "Ġconnections": 5921,
      "Ġfallback": 5922,
      "INFO": 5923,
      "ĠModule": 5924,
      "Sk": 5925,
      "Ġcar": 5926,
      "Ġteam": 5927,
      "ĠSort": 5928,
      "tle": 5929,
      "thread": 5930,
      "Cmd": 5931,
      "ĠOS": 5932,
      "Accept": 5933,
      "Ġinstant": 5934,
      "fill": 5935,
      "Ġobser": 5936,
      "REG": 5937,
      "Diff": 5938,
      "ĠequalsIgnoreCase": 5939,
      "Versions": 5940,
      "Ġwritten": 5941,
      "Ġsat": 5942,
      "Ġsomething": 5943,
      "sers": 5944,
      "Ġones": 5945,
      "see": 5946,
      "ĠTransaction": 5947,
      "BE": 5948,
      "Ġhidden": 5949,
      "Ġchecked": 5950,
      "Ġcompleted": 5951,
      "Into": 5952,
      "Ġcanvas": 5953,
      "errupted": 5954,
      "Ġneighb": 5955,
      "Ġevaluate": 5956,
      "ued": 5957,
      "Ġ13": 5958,
      "Slice": 5959,
      "Ġworking": 5960,
      "Redirect": 5961,
      "NotNull": 5962,
      "Ġlogs": 5963,
      "device": 5964,
      "allow": 5965,
      "Ġdetect": 5966,
      "TL": 5967,
      "aring": 5968,
      "[^": 5969,
      "Ġconverted": 5970,
      "Ġreceiver": 5971,
      "Ġshell": 5972,
      "ĠgetNode": 5973,
      "Ġpot": 5974,
      "road": 5975,
      "Ġdynamic": 5976,
      "tain": 5977,
      "undefined": 5978,
      "depth": 5979,
      "MO": 5980,
      "Ġactiv": 5981,
      "ĠBatch": 5982,
      "Ġcells": 5983,
      "ĠnewInstance": 5984,
      "ĠBytes": 5985,
      "prop": 5986,
      "ĠBuffered": 5987,
      "Upper": 5988,
      "events": 5989,
      "member": 5990,
      "ĠMulti": 5991,
      "ished": 5992,
      "Ġdep": 5993,
      "aped": 5994,
      "509": 5995,
      "UST": 5996,
      "LINE": 5997,
      "ONE": 5998,
      "encoding": 5999,
      "ierarchy": 6000,
      "Org": 6001,
      "Ġpick": 6002,
      "Ġworkspace": 6003,
      "Ġwritel": 6004,
      "ĠNamespace": 6005,
      "report": 6006,
      "Ġtransition": 6007,
      "ĠPort": 6008,
      "Ġstage": 6009,
      "Ġpipe": 6010,
      "pool": 6011,
      "rad": 6012,
      "Ġactually": 6013,
      "Private": 6014,
      "Ġpriv": 6015,
      "Ġtz": 6016,
      "pair": 6017,
      "inherit": 6018,
      "parts": 6019,
      "ĠAtt": 6020,
      "Ġvisible": 6021,
      "Ġ{}'": 6022,
      "Ġchoice": 6023,
      "Publish": 6024,
      "nail": 6025,
      "Ġgenerates": 6026,
      "Ġconverter": 6027,
      "66": 6028,
      "Place": 6029,
      "28": 6030,
      "Memory": 6031,
      "Payment": 6032,
      "ao": 6033,
      "ĠgetFile": 6034,
      "Ġlists": 6035,
      "ĠSecurity": 6036,
      "onomy": 6037,
      "LOB": 6038,
      "Ġprecision": 6039,
      "ĠWarn": 6040,
      "ĠgetQuery": 6041,
      "Ġattachment": 6042,
      "ARY": 6043,
      "sib": 6044,
      "isters": 6045,
      "wt": 6046,
      "Ġkv": 6047,
      "ĠNAME": 6048,
      "Ġdesired": 6049,
      "Sw": 6050,
      "where": 6051,
      "ĠAR": 6052,
      "oring": 6053,
      "common": 6054,
      "Ġchunks": 6055,
      "Ġsha": 6056,
      "ĠEnum": 6057,
      "Ġgrad": 6058,
      "jected": 6059,
      "Ġreplacement": 6060,
      "Schedule": 6061,
      "---": 6062,
      "Authorization": 6063,
      "Holder": 6064,
      "LIC": 6065,
      "ĠOp": 6066,
      "CONT": 6067,
      "MIT": 6068,
      "NUM": 6069,
      "era": 6070,
      "Jvm": 6071,
      "Ġii": 6072,
      "bre": 6073,
      "Ġcoords": 6074,
      "Ġsteps": 6075,
      "ĠWindow": 6076,
      "ĠDevice": 6077,
      "Aggreg": 6078,
      "auto": 6079,
      "Ġcf": 6080,
      "img": 6081,
      "ĠCustom": 6082,
      "Given": 6083,
      "ever": 6084,
      "Ġtol": 6085,
      "SSAGE": 6086,
      "Ġiterable": 6087,
      "Ġcases": 6088,
      "ples": 6089,
      "ĠAnnotation": 6090,
      "ĠUtils": 6091,
      "Ġnegative": 6092,
      "Ġauthorization": 6093,
      "Declaration": 6094,
      "Ġworkflow": 6095,
      "enticated": 6096,
      "Ġyaml": 6097,
      "Edge": 6098,
      "Gu": 6099,
      "Actions": 6100,
      "Ġcsv": 6101,
      "none": 6102,
      "Ġenter": 6103,
      "Ġincludes": 6104,
      "variable": 6105,
      "Ident": 6106,
      "ĠBad": 6107,
      "Ġmc": 6108,
      "Detail": 6109,
      "Payload": 6110,
      "Ġsem": 6111,
      "alance": 6112,
      "Req": 6113,
      "xb": 6114,
      "lan": 6115,
      "Ġ..": 6116,
      "uses": 6117,
      "Ġtm": 6118,
      "Created": 6119,
      "Rect": 6120,
      "Ġspl": 6121,
      "ĠSH": 6122,
      "ĠCF": 6123,
      "ĠGoogle": 6124,
      "Ġpc": 6125,
      "Ġhour": 6126,
      "poch": 6127,
      "ĠMedia": 6128,
      "ĠnewValue": 6129,
      "normal": 6130,
      "ĠNewErr": 6131,
      "itter": 6132,
      "Ġgithub": 6133,
      "')": 6134,
      "ĠgetTime": 6135,
      "Ġwriteln": 6136,
      "ĠINT": 6137,
      "Ġaddresses": 6138,
      "Ġbuff": 6139,
      "yped": 6140,
      "ises": 6141,
      "Ġ(%": 6142,
      "Ġcy": 6143,
      "Export": 6144,
      "assign": 6145,
      "Ġsupports": 6146,
      "oreign": 6147,
      "Depth": 6148,
      "ĠThere": 6149,
      "reat": 6150,
      "Cookie": 6151,
      "MT": 6152,
      "Ġ\":\"": 6153,
      "returns": 6154,
      "ĠSo": 6155,
      "Ġoverwrite": 6156,
      "orizont": 6157,
      "Variables": 6158,
      "aking": 6159,
      "ĠVer": 6160,
      "ĠTry": 6161,
      "59": 6162,
      "Credentials": 6163,
      "ĠImport": 6164,
      "ĠFunc": 6165,
      "Ġcms": 6166,
      "Ġunpack": 6167,
      "ĠDat": 6168,
      "iki": 6169,
      "utions": 6170,
      "Ġrank": 6171,
      "tl": 6172,
      "(...)\"": 6173,
      "Ġitself": 6174,
      "Ġperson": 6175,
      "Ġdialog": 6176,
      "Literal": 6177,
      "sequence": 6178,
      "Opt": 6179,
      "reference": 6180,
      "ĠAppend": 6181,
      "quare": 6182,
      "ĠProperties": 6183,
      "ĠProtocolMarshaller": 6184,
      "ignore": 6185,
      "alf": 6186,
      "Fin": 6187,
      "MD": 6188,
      "oad": 6189,
      "ĠNewErrParam": 6190,
      "Ġvideo": 6191,
      "triction": 6192,
      "Activity": 6193,
      "Ġsyn": 6194,
      "Ġvs": 6195,
      "umbnail": 6196,
      "Ġcred": 6197,
      "Ġcodes": 6198,
      "Ġproblem": 6199,
      "clean": 6200,
      "allet": 6201,
      "Ġsheet": 6202,
      "ocker": 6203,
      "ĠRole": 6204,
      "Ġprice": 6205,
      "push": 6206,
      "Visible": 6207,
      "reset": 6208,
      "ĠDecode": 6209,
      "Warning": 6210,
      "uer": 6211,
      "xid": 6212,
      "iet": 6213,
      "ctrine": 6214,
      "gers": 6215,
      "../": 6216,
      "Cor": 6217,
      "Ġqueries": 6218,
      "ashboard": 6219,
      "Removes": 6220,
      "estroy": 6221,
      "Ġcatalog": 6222,
      "dap": 6223,
      "ĠfindBy": 6224,
      "You": 6225,
      "complete": 6226,
      "Ġcn": 6227,
      "ism": 6228,
      "ĠON": 6229,
      "Cloud": 6230,
      "database": 6231,
      "Ġuc": 6232,
      "Selection": 6233,
      "ulation": 6234,
      "cursively": 6235,
      "MIN": 6236,
      "Ġconstraints": 6237,
      "alog": 6238,
      "OKEN": 6239,
      "ĠEncode": 6240,
      "TODO": 6241,
      "iol": 6242,
      "ulate": 6243,
      "OLLOW": 6244,
      "orld": 6245,
      "ĠIM": 6246,
      "Disk": 6247,
      "Backup": 6248,
      "ĠuserId": 6249,
      "Ġ1024": 6250,
      "Tri": 6251,
      "Ġstrategy": 6252,
      "PL": 6253,
      "ience": 6254,
      "Chan": 6255,
      "Ġcoe": 6256,
      "ĠCle": 6257,
      "ĠPlugin": 6258,
      "Ġrh": 6259,
      "05": 6260,
      "ially": 6261,
      "Proto": 6262,
      "Ġabort": 6263,
      "Tick": 6264,
      "....": 6265,
      "OIN": 6266,
      "Ġdocker": 6267,
      "ĠReference": 6268,
      "Ġtemporary": 6269,
      "unique": 6270,
      "BER": 6271,
      "ĠgetMethod": 6272,
      "DataType": 6273,
      "elements": 6274,
      "Amount": 6275,
      "ĠStd": 6276,
      "Ġloads": 6277,
      "racket": 6278,
      "Ġsyntax": 6279,
      "}\\": 6280,
      "ĠRepository": 6281,
      "ving": 6282,
      "convert": 6283,
      "ajor": 6284,
      "Ġanalysis": 6285,
      "Matcher": 6286,
      "Ġassum": 6287,
      "serialize": 6288,
      "Support": 6289,
      "java": 6290,
      "lying": 6291,
      "Ġconv": 6292,
      "Constructor": 6293,
      "veloper": 6294,
      "Codes": 6295,
      "ĠentrySet": 6296,
      "Complet": 6297,
      "Ġparents": 6298,
      "writer": 6299,
      "Ġfilled": 6300,
      "Ġunc": 6301,
      "oto": 6302,
      "Unique": 6303,
      "ĠRemote": 6304,
      "Des": 6305,
      "Serializer": 6306,
      "PREFIX": 6307,
      "adow": 6308,
      "''": 6309,
      "ĠcreateElement": 6310,
      "oj": 6311,
      "ACE": 6312,
      "Grid": 6313,
      "Ġdeployment": 6314,
      "._": 6315,
      "Ġtog": 6316,
      "Ġstatements": 6317,
      "ensity": 6318,
      "cu": 6319,
      "ĠRest": 6320,
      "ĠSize": 6321,
      "Complete": 6322,
      "Contents": 6323,
      "Ġevt": 6324,
      "Executor": 6325,
      "usters": 6326,
      "upload": 6327,
      "Ġdetermin": 6328,
      "changes": 6329,
      "Ġworks": 6330,
      "DR": 6331,
      "StackTrace": 6332,
      "Ġmigration": 6333,
      "44": 6334,
      "Ġindiv": 6335,
      "iness": 6336,
      "Ġttl": 6337,
      "ĠFrom": 6338,
      "locale": 6339,
      "Ġserializer": 6340,
      "ĠPrintf": 6341,
      "Serial": 6342,
      "ARNING": 6343,
      "ATED": 6344,
      "hidden": 6345,
      "Ġfloor": 6346,
      "global": 6347,
      "filters": 6348,
      "cas": 6349,
      "Ġrevision": 6350,
      "Present": 6351,
      "ĠgetEntity": 6352,
      "Dialog": 6353,
      "PORT": 6354,
      "score": 6355,
      "xFF": 6356,
      "Ġwp": 6357,
      "sample": 6358,
      "orizontal": 6359,
      "quals": 6360,
      "atype": 6361,
      "][": 6362,
      "layer": 6363,
      "Tool": 6364,
      "IAL": 6365,
      "otes": 6366,
      "UNCTION": 6367,
      "Skip": 6368,
      "ĠDEBUG": 6369,
      "Ġinline": 6370,
      "Ġtimezone": 6371,
      "etailed": 6372,
      "ĠgetService": 6373,
      "Ġlogical": 6374,
      "ĠNullable": 6375,
      "Main": 6376,
      "Ġdefinitions": 6377,
      "zz": 6378,
      "ITH": 6379,
      "ĠUTF": 6380,
      "conditions": 6381,
      "Ġhome": 6382,
      "Ġdecoded": 6383,
      "Ġassociation": 6384,
      "final": 6385,
      "Ġpb": 6386,
      "insert": 6387,
      "aker": 6388,
      "Ġnumeric": 6389,
      "Ġouter": 6390,
      "Ġcut": 6391,
      "ident": 6392,
      "ĠPart": 6393,
      "ĠAttributeError": 6394,
      "details": 6395,
      "Ġsingleton": 6396,
      "wards": 6397,
      "Ġ\":": 6398,
      "ango": 6399,
      "modules": 6400,
      "Ġdescribe": 6401,
      "Ġdirectories": 6402,
      "gp": 6403,
      "TED": 6404,
      "Ġverb": 6405,
      "strip": 6406,
      "ascript": 6407,
      "term": 6408,
      "periment": 6409,
      "Install": 6410,
      "umes": 6411,
      "Esc": 6412,
      "Ġ*=": 6413,
      "Ġctrl": 6414,
      "Card": 6415,
      "Ġaltern": 6416,
      "avigation": 6417,
      "37": 6418,
      "ĠExt": 6419,
      "flag": 6420,
      "Requests": 6421,
      "ĠVER": 6422,
      "nb": 6423,
      "ĠTx": 6424,
      "ĠCA": 6425,
      "Put": 6426,
      "sd": 6427,
      "ĠcaseIfc": 6428,
      "cls": 6429,
      "bool": 6430,
      "ĠEOF": 6431,
      "Ġprior": 6432,
      "Pass": 6433,
      "Bad": 6434,
      "onym": 6435,
      "slug": 6436,
      "Ġ50": 6437,
      "Ġmonitor": 6438,
      "ĠCommerce": 6439,
      "tracking": 6440,
      "\">": 6441,
      "Ctx": 6442,
      "Defin": 6443,
      "Balancer": 6444,
      "Ġer": 6445,
      "png": 6446,
      "extension": 6447,
      "Ġnative": 6448,
      "Ġformats": 6449,
      "Blocks": 6450,
      "lyph": 6451,
      "Loop": 6452,
      "Ġreading": 6453,
      "Ġinitialized": 6454,
      "ĠgetObject": 6455,
      "-%": 6456,
      "itional": 6457,
      "ĠLocale": 6458,
      "void": 6459,
      "DELETE": 6460,
      "////////////////////////////////": 6461,
      "Ġartifact": 6462,
      "Ġtxt": 6463,
      "Make": 6464,
      "VENT": 6465,
      "Virtual": 6466,
      "ĠGu": 6467,
      "Ġnan": 6468,
      "ĠCH": 6469,
      "tick": 6470,
      "ĠFiles": 6471,
      "Ġrename": 6472,
      "Ġgrammar": 6473,
      "ĠgetContext": 6474,
      "Vertex": 6475,
      "ĠgetResponse": 6476,
      "Ġcategories": 6477,
      "ically": 6478,
      "JS": 6479,
      "aug": 6480,
      "Ġmicro": 6481,
      "jax": 6482,
      "ĠSQLException": 6483,
      "ĠUI": 6484,
      "Series": 6485,
      "BY": 6486,
      "],": 6487,
      "ĠPod": 6488,
      "Ġte": 6489,
      "Ġpopulate": 6490,
      "aN": 6491,
      "Authentication": 6492,
      "Draw": 6493,
      "boolean": 6494,
      "Bits": 6495,
      "Ġfilesystem": 6496,
      "Utility": 6497,
      "loop": 6498,
      "Records": 6499,
      "udes": 6500,
      "Ġ'#'": 6501,
      "PERTY": 6502,
      "(?:": 6503,
      "ailability": 6504,
      "ivalent": 6505,
      "udo": 6506,
      "ĠDescription": 6507,
      "Ġincluding": 6508,
      "versation": 6509,
      "pred": 6510,
      "xc": 6511,
      "ĠFF": 6512,
      "ripts": 6513,
      "Ġlisten": 6514,
      "Ġaxes": 6515,
      "ele": 6516,
      "Common": 6517,
      "Trigger": 6518,
      "TERN": 6519,
      "Ġseek": 6520,
      "Permissions": 6521,
      "Bot": 6522,
      "Ġ&#": 6523,
      "ersistence": 6524,
      "ĠRO": 6525,
      "ACT": 6526,
      "erve": 6527,
      "require": 6528,
      "Ġcop": 6529,
      "export": 6530,
      "ĠFOLLOW": 6531,
      "Ġiteration": 6532,
      "Ġbc": 6533,
      "Ġadding": 6534,
      "Ġmkdir": 6535,
      "ensitive": 6536,
      "SOURCE": 6537,
      "ĠgetX": 6538,
      "ĠBit": 6539,
      "make": 6540,
      "Ġdue": 6541,
      "Optional": 6542,
      "publish": 6543,
      "Weight": 6544,
      "Ġannot": 6545,
      "ĠLinked": 6546,
      "transform": 6547,
      "Ġterms": 6548,
      "Ġ18": 6549,
      "Ġjobs": 6550,
      "chunk": 6551,
      "LAG": 6552,
      "FER": 6553,
      "xe": 6554,
      "Ġnone": 6555,
      "ĠRow": 6556,
      "Ġec": 6557,
      "Axis": 6558,
      "enticate": 6559,
      "hape": 6560,
      "ourn": 6561,
      "ĠCurrent": 6562,
      "Click": 6563,
      "54": 6564,
      "ĠMeta": 6565,
      "TRI": 6566,
      "Contact": 6567,
      "Transport": 6568,
      "culate": 6569,
      "quences": 6570,
      "Ġptr": 6571,
      "ersistent": 6572,
      "Ġcat": 6573,
      "igration": 6574,
      "AIL": 6575,
      "ĠRaw": 6576,
      "ĠCharacter": 6577,
      "Ġdelet": 6578,
      "Ġll": 6579,
      "Ġ36": 6580,
      "Separator": 6581,
      "na": 6582,
      "ĠgetCode": 6583,
      "PP": 6584,
      "datetime": 6585,
      "Ne": 6586,
      "widget": 6587,
      "Users": 6588,
      "LOCK": 6589,
      "ĠAccount": 6590,
      "Ġclause": 6591,
      "mer": 6592,
      "ĠstatusCode": 6593,
      "Ġpanel": 6594,
      "ĠgetProc": 6595,
      "Ġlifecycle": 6596,
      "Ġque": 6597,
      "ony": 6598,
      "Ġplay": 6599,
      "ĠPython": 6600,
      "Ġexecutor": 6601,
      "enant": 6602,
      "ĠDel": 6603,
      "Ġ500": 6604,
      "Ġdns": 6605,
      "aves": 6606,
      "Lat": 6607,
      "roadcast": 6608,
      "Lookup": 6609,
      "pid": 6610,
      "ĠSkip": 6611,
      "ĠgroupId": 6612,
      "ilation": 6613,
      "Ġ'/^": 6614,
      "Decode": 6615,
      "SPACE": 6616,
      "Ġappro": 6617,
      "Override": 6618,
      "Ġ\"#": 6619,
      "short": 6620,
      "Rad": 6621,
      "ĠMark": 6622,
      "Ġlayers": 6623,
      "interval": 6624,
      "100": 6625,
      "Ġvol": 6626,
      "-'": 6627,
      "Regex": 6628,
      "ĠController": 6629,
      "Week": 6630,
      "ĠgetProcAddr": 6631,
      "tf": 6632,
      "Ġdx": 6633,
      "ĠArgs": 6634,
      "Ġautomatically": 6635,
      "Ġwire": 6636,
      "Ġarch": 6637,
      "Subject": 6638,
      "SU": 6639,
      "ifications": 6640,
      "Ġfront": 6641,
      "tools": 6642,
      "Ġdiag": 6643,
      "Evalu": 6644,
      "Fac": 6645,
      "ĠGit": 6646,
      "ĠĠĠĠĠĠĠĠĠĠ": 6647,
      "ĠDomain": 6648,
      "Ġmeasure": 6649,
      "Ġbuilt": 6650,
      "ĠEd": 6651,
      "Ġsubprocess": 6652,
      "Generates": 6653,
      "ĠGenerate": 6654,
      "Ġtd": 6655,
      "Parses": 6656,
      "Topic": 6657,
      "inger": 6658,
      "Ġprocessor": 6659,
      "ĠCertificate": 6660,
      "Ġassignment": 6661,
      "github": 6662,
      "Subscription": 6663,
      "ez": 6664,
      "slice": 6665,
      "Ġcustomer": 6666,
      "Packet": 6667,
      "Used": 6668,
      "76": 6669,
      "Ġwebs": 6670,
      "Worker": 6671,
      "Asset": 6672,
      "plib": 6673,
      "ĠStringBuffer": 6674,
      "89": 6675,
      "setopt": 6676,
      "ĠNonnull": 6677,
      "ntities": 6678,
      "aps": 6679,
      "ĠcurrentTime": 6680,
      "Dispatcher": 6681,
      "ĠInterface": 6682,
      "ĠConn": 6683,
      "Ġfails": 6684,
      "Tasks": 6685,
      "Ġcleanup": 6686,
      "LED": 6687,
      "Cursor": 6688,
      "Ġcallbacks": 6689,
      "ĠsetParameter": 6690,
      "Cancel": 6691,
      "Ġrm": 6692,
      "ĠEN": 6693,
      "MAX": 6694,
      "Ġplaceholder": 6695,
      "Help": 6696,
      "Ġchecksum": 6697,
      "ĠLen": 6698,
      "Ġ'|": 6699,
      "\\/": 6700,
      "ĠgetText": 6701,
      "include": 6702,
[...]
